#include "magic_wand_model_data.h"

// We need to keep the data array aligned on some architectures.
#ifdef __has_attribute
#define HAVE_ATTRIBUTE(x) __has_attribute(x)
#else
#define HAVE_ATTRIBUTE(x) 0
#endif
#if HAVE_ATTRIBUTE(aligned) || (defined(__GNUC__) && !defined(__clang__))
#define DATA_ALIGN_ATTRIBUTE __attribute__((aligned(4)))
#else
#define DATA_ALIGN_ATTRIBUTE
#endif

const unsigned char g_magic_wand_model_data[] DATA_ALIGN_ATTRIBUTE = {
  // Paste the data of the char array in `src/model.cc` here
 0x1c, 0x00, 0x00, 0x00, 0x54, 0x46, 0x4c, 0x33, 0x14, 0x00, 0x20, 0x00,
  0x04, 0x00, 0x08, 0x00, 0x0c, 0x00, 0x10, 0x00, 0x14, 0x00, 0x00, 0x00,
  0x18, 0x00, 0x1c, 0x00, 0x14, 0x00, 0x00, 0x00, 0x03, 0x00, 0x00, 0x00,
  0x18, 0x00, 0x00, 0x00, 0x2c, 0x00, 0x00, 0x00, 0xd8, 0x00, 0x00, 0x00,
  0x2c, 0x00, 0x00, 0x00, 0x80, 0x00, 0x00, 0x00, 0x78, 0x00, 0x00, 0x00,
  0x05, 0x00, 0x00, 0x00, 0x28, 0x07, 0x00, 0x00, 0x44, 0x06, 0x00, 0x00,
  0xbc, 0x03, 0x00, 0x00, 0xf8, 0x02, 0x00, 0x00, 0xac, 0x01, 0x00, 0x00,
  0x01, 0x00, 0x00, 0x00, 0xd0, 0x00, 0x00, 0x00, 0x14, 0x00, 0x00, 0x00,
  0xdc, 0x32, 0x00, 0x00, 0xd8, 0x32, 0x00, 0x00, 0xd0, 0x31, 0x00, 0x00,
  0x1c, 0x31, 0x00, 0x00, 0x74, 0x30, 0x00, 0x00, 0xfc, 0x2f, 0x00, 0x00,
  0x90, 0x2f, 0x00, 0x00, 0x40, 0x13, 0x00, 0x00, 0xec, 0x11, 0x00, 0x00,
  0x10, 0x10, 0x00, 0x00, 0xb4, 0x07, 0x00, 0x00, 0xb0, 0x32, 0x00, 0x00,
  0xac, 0x32, 0x00, 0x00, 0xa8, 0x32, 0x00, 0x00, 0xa4, 0x32, 0x00, 0x00,
  0xa0, 0x32, 0x00, 0x00, 0x9c, 0x32, 0x00, 0x00, 0x98, 0x32, 0x00, 0x00,
  0x94, 0x32, 0x00, 0x00, 0x3c, 0x00, 0x00, 0x00, 0x00, 0x00, 0x00, 0x00,
  0x01, 0x00, 0x00, 0x00, 0x0c, 0x00, 0x00, 0x00, 0x08, 0x00, 0x0c, 0x00,
  0x04, 0x00, 0x08, 0x00, 0x08, 0x00, 0x00, 0x00, 0x08, 0x00, 0x00, 0x00,
  0x13, 0x00, 0x00, 0x00, 0x13, 0x00, 0x00, 0x00, 0x6d, 0x69, 0x6e, 0x5f,
  0x72, 0x75, 0x6e, 0x74, 0x69, 0x6d, 0x65, 0x5f, 0x76, 0x65, 0x72, 0x73,
  0x69, 0x6f, 0x6e, 0x00, 0xb6, 0xce, 0xff, 0xff, 0x04, 0x00, 0x00, 0x00,
  0x10, 0x00, 0x00, 0x00, 0x31, 0x2e, 0x35, 0x2e, 0x30, 0x00, 0x00, 0x00,
  0x00, 0x00, 0x00, 0x00, 0x00, 0x00, 0x00, 0x00, 0x0f, 0x00, 0x00, 0x00,
  0x4d, 0x4c, 0x49, 0x52, 0x20, 0x43, 0x6f, 0x6e, 0x76, 0x65, 0x72, 0x74,
  0x65, 0x64, 0x2e, 0x00, 0x00, 0x00, 0x0e, 0x00, 0x18, 0x00, 0x04, 0x00,
  0x08, 0x00, 0x0c, 0x00, 0x10, 0x00, 0x14, 0x00, 0x0e, 0x00, 0x00, 0x00,
  0x14, 0x00, 0x00, 0x00, 0x5c, 0x00, 0x00, 0x00, 0x60, 0x00, 0x00, 0x00,
  0x64, 0x00, 0x00, 0x00, 0x84, 0x00, 0x00, 0x00, 0x12, 0x00, 0x00, 0x00,
  0x9c, 0x31, 0x00, 0x00, 0x2c, 0x31, 0x00, 0x00, 0x88, 0x30, 0x00, 0x00,
  0xe0, 0x2f, 0x00, 0x00, 0x38, 0x2f, 0x00, 0x00, 0xd4, 0x2e, 0x00, 0x00,
  0x6c, 0x2e, 0x00, 0x00, 0x18, 0x12, 0x00, 0x00, 0xbc, 0x10, 0x00, 0x00,
  0xe0, 0x0e, 0x00, 0x00, 0x0c, 0x06, 0x00, 0x00, 0x28, 0x05, 0x00, 0x00,
  0xe8, 0x03, 0x00, 0x00, 0x3c, 0x03, 0x00, 0x00, 0x98, 0x02, 0x00, 0x00,
  0xd4, 0x01, 0x00, 0x00, 0x10, 0x01, 0x00, 0x00, 0x84, 0x00, 0x00, 0x00,
  0x01, 0x00, 0x00, 0x00, 0x00, 0x00, 0x00, 0x00, 0x01, 0x00, 0x00, 0x00,
  0x11, 0x00, 0x00, 0x00, 0x08, 0x00, 0x00, 0x00, 0x74, 0x05, 0x00, 0x00,
  0x94, 0x04, 0x00, 0x00, 0x78, 0x03, 0x00, 0x00, 0xbc, 0x02, 0x00, 0x00,
  0x30, 0x02, 0x00, 0x00, 0x50, 0x01, 0x00, 0x00, 0xa8, 0x00, 0x00, 0x00,
  0x10, 0x00, 0x00, 0x00, 0x04, 0x00, 0x00, 0x00, 0x6d, 0x61, 0x69, 0x6e,
  0x00, 0x00, 0x00, 0x00, 0x7a, 0xff, 0xff, 0xff, 0x00, 0x00, 0x00, 0x09,
  0x04, 0x00, 0x00, 0x00, 0x1c, 0x00, 0x00, 0x00, 0x10, 0x00, 0x00, 0x00,
  0x04, 0x00, 0x00, 0x00, 0xb2, 0xcf, 0xff, 0xff, 0x00, 0x00, 0x80, 0x3f,
  0x01, 0x00, 0x00, 0x00, 0x11, 0x00, 0x00, 0x00, 0x01, 0x00, 0x00, 0x00,
  0x10, 0x00, 0x00, 0x00, 0xa0, 0xfa, 0xff, 0xff, 0x19, 0x00, 0x00, 0x00,
  0x00, 0x00, 0x00, 0x19, 0x01, 0x00, 0x00, 0x00, 0x40, 0xcf, 0xff, 0xff,
  0x14, 0x00, 0x00, 0x00, 0x12, 0x00, 0x00, 0x00, 0x18, 0x00, 0x00, 0x00,
  0x30, 0x00, 0x00, 0x00, 0x20, 0x00, 0x00, 0x00, 0x02, 0x00, 0x00, 0x00,
  0x01, 0x00, 0x00, 0x00, 0x04, 0x00, 0x00, 0x00, 0x08, 0x00, 0x00, 0x00,
  0x49, 0x64, 0x65, 0x6e, 0x74, 0x69, 0x74, 0x79, 0x00, 0x00, 0x00, 0x00,
  0x02, 0x00, 0x00, 0x00, 0xff, 0xff, 0xff, 0xff, 0x04, 0x00, 0x00, 0x00,
  0x24, 0xd0, 0xff, 0xff, 0x00, 0x00, 0x0e, 0x00, 0x18, 0x00, 0x08, 0x00,
  0x0c, 0x00, 0x10, 0x00, 0x07, 0x00, 0x14, 0x00, 0x0e, 0x00, 0x00, 0x00,
  0x00, 0x00, 0x00, 0x08, 0x03, 0x00, 0x00, 0x00, 0x18, 0x00, 0x00, 0x00,
  0x0c, 0x00, 0x00, 0x00, 0x04, 0x00, 0x00, 0x00, 0x40, 0xcf, 0xff, 0xff,
  0x01, 0x00, 0x00, 0x00, 0x10, 0x00, 0x00, 0x00, 0x03, 0x00, 0x00, 0x00,
  0x0f, 0x00, 0x00, 0x00, 0x07, 0x00, 0x00, 0x00, 0x04, 0x00, 0x00, 0x00,
  0xc8, 0xcf, 0xff, 0xff, 0x14, 0x00, 0x00, 0x00, 0x11, 0x00, 0x00, 0x00,
  0x18, 0x00, 0x00, 0x00, 0x5c, 0x00, 0x00, 0x00, 0x4c, 0x00, 0x00, 0x00,
  0x02, 0x00, 0x00, 0x00, 0x01, 0x00, 0x00, 0x00, 0x04, 0x00, 0x00, 0x00,
  0x34, 0x00, 0x00, 0x00, 0x73, 0x65, 0x71, 0x75, 0x65, 0x6e, 0x74, 0x69,
  0x61, 0x6c, 0x2f, 0x64, 0x65, 0x6e, 0x73, 0x65, 0x5f, 0x31, 0x2f, 0x4d,
  0x61, 0x74, 0x4d, 0x75, 0x6c, 0x3b, 0x73, 0x65, 0x71, 0x75, 0x65, 0x6e,
  0x74, 0x69, 0x61, 0x6c, 0x2f, 0x64, 0x65, 0x6e, 0x73, 0x65, 0x5f, 0x31,
  0x2f, 0x42, 0x69, 0x61, 0x73, 0x41, 0x64, 0x64, 0x00, 0x00, 0x00, 0x00,
  0x02, 0x00, 0x00, 0x00, 0xff, 0xff, 0xff, 0xff, 0x04, 0x00, 0x00, 0x00,
  0xc8, 0xcf, 0xff, 0xff, 0xda, 0xfc, 0xff, 0xff, 0x00, 0x00, 0x00, 0x08,
  0x03, 0x00, 0x00, 0x00, 0x24, 0x00, 0x00, 0x00, 0x18, 0x00, 0x00, 0x00,
  0x0c, 0x00, 0x00, 0x00, 0x00, 0x00, 0x06, 0x00, 0x08, 0x00, 0x07, 0x00,
  0x06, 0x00, 0x00, 0x00, 0x00, 0x00, 0x00, 0x01, 0x01, 0x00, 0x00, 0x00,
  0x0f, 0x00, 0x00, 0x00, 0x03, 0x00, 0x00, 0x00, 0x0e, 0x00, 0x00, 0x00,
  0x06, 0x00, 0x00, 0x00, 0x03, 0x00, 0x00, 0x00, 0xe8, 0xfb, 0xff, 0xff,
  0x09, 0x00, 0x00, 0x00, 0x00, 0x00, 0x00, 0x09, 0x01, 0x00, 0x00, 0x00,
  0x88, 0xd0, 0xff, 0xff, 0x14, 0x00, 0x00, 0x00, 0x10, 0x00, 0x00, 0x00,
  0x18, 0x00, 0x00, 0x00, 0x6c, 0x00, 0x00, 0x00, 0x5c, 0x00, 0x00, 0x00,
  0x02, 0x00, 0x00, 0x00, 0x01, 0x00, 0x00, 0x00, 0x10, 0x00, 0x00, 0x00,
  0x46, 0x00, 0x00, 0x00, 0x73, 0x65, 0x71, 0x75, 0x65, 0x6e, 0x74, 0x69,
  0x61, 0x6c, 0x2f, 0x64, 0x65, 0x6e, 0x73, 0x65, 0x2f, 0x4d, 0x61, 0x74,
  0x4d, 0x75, 0x6c, 0x3b, 0x73, 0x65, 0x71, 0x75, 0x65, 0x6e, 0x74, 0x69,
  0x61, 0x6c, 0x2f, 0x64, 0x65, 0x6e, 0x73, 0x65, 0x2f, 0x52, 0x65, 0x6c,
  0x75, 0x3b, 0x73, 0x65, 0x71, 0x75, 0x65, 0x6e, 0x74, 0x69, 0x61, 0x6c,
  0x2f, 0x64, 0x65, 0x6e, 0x73, 0x65, 0x2f, 0x42, 0x69, 0x61, 0x73, 0x41,
  0x64, 0x64, 0x00, 0x00, 0x02, 0x00, 0x00, 0x00, 0xff, 0xff, 0xff, 0xff,
  0x10, 0x00, 0x00, 0x00, 0xa8, 0xd1, 0xff, 0xff, 0x00, 0x00, 0x0a, 0x00,
  0x10, 0x00, 0x04, 0x00, 0x08, 0x00, 0x0c, 0x00, 0x0a, 0x00, 0x00, 0x00,
  0x02, 0x00, 0x00, 0x00, 0x10, 0x00, 0x00, 0x00, 0x04, 0x00, 0x00, 0x00,
  0x01, 0x00, 0x00, 0x00, 0x0e, 0x00, 0x00, 0x00, 0x02, 0x00, 0x00, 0x00,
  0x0d, 0x00, 0x00, 0x00, 0x05, 0x00, 0x00, 0x00, 0xa8, 0xfc, 0xff, 0xff,
  0x16, 0x00, 0x00, 0x00, 0x00, 0x00, 0x00, 0x16, 0x01, 0x00, 0x00, 0x00,
  0x48, 0xd1, 0xff, 0xff, 0x14, 0x00, 0x00, 0x00, 0x0f, 0x00, 0x00, 0x00,
  0x18, 0x00, 0x00, 0x00, 0x40, 0x00, 0x00, 0x00, 0x30, 0x00, 0x00, 0x00,
  0x02, 0x00, 0x00, 0x00, 0x01, 0x00, 0x00, 0x00, 0x70, 0x00, 0x00, 0x00,
  0x1a, 0x00, 0x00, 0x00, 0x73, 0x65, 0x71, 0x75, 0x65, 0x6e, 0x74, 0x69,
  0x61, 0x6c, 0x2f, 0x66, 0x6c, 0x61, 0x74, 0x74, 0x65, 0x6e, 0x2f, 0x52,
  0x65, 0x73, 0x68, 0x61, 0x70, 0x65, 0x00, 0x00, 0x02, 0x00, 0x00, 0x00,
  0xff, 0xff, 0xff, 0xff, 0x70, 0x00, 0x00, 0x00, 0x2c, 0xd1, 0xff, 0xff,
  0x3e, 0xfe, 0xff, 0xff, 0x00, 0x00, 0x00, 0x05, 0x01, 0x00, 0x00, 0x00,
  0x38, 0x00, 0x00, 0x00, 0x2c, 0x00, 0x00, 0x00, 0x14, 0x00, 0x00, 0x00,
  0x00, 0x00, 0x0e, 0x00, 0x14, 0x00, 0x00, 0x00, 0x10, 0x00, 0x0c, 0x00,
  0x08, 0x00, 0x04, 0x00, 0x0e, 0x00, 0x00, 0x00, 0x03, 0x00, 0x00, 0x00,
  0x01, 0x00, 0x00, 0x00, 0x03, 0x00, 0x00, 0x00, 0x01, 0x00, 0x00, 0x00,
  0x01, 0x00, 0x00, 0x00, 0x0d, 0x00, 0x00, 0x00, 0x01, 0x00, 0x00, 0x00,
  0x0c, 0x00, 0x00, 0x00, 0xe8, 0xd1, 0xff, 0xff, 0x14, 0x00, 0x00, 0x00,
  0x0e, 0x00, 0x00, 0x00, 0x20, 0x00, 0x00, 0x00, 0x58, 0x00, 0x00, 0x00,
  0x40, 0x00, 0x00, 0x00, 0x04, 0x00, 0x00, 0x00, 0x01, 0x00, 0x00, 0x00,
  0x07, 0x00, 0x00, 0x00, 0x01, 0x00, 0x00, 0x00, 0x10, 0x00, 0x00, 0x00,
  0x22, 0x00, 0x00, 0x00, 0x73, 0x65, 0x71, 0x75, 0x65, 0x6e, 0x74, 0x69,
  0x61, 0x6c, 0x2f, 0x6d, 0x61, 0x78, 0x5f, 0x70, 0x6f, 0x6f, 0x6c, 0x69,
  0x6e, 0x67, 0x32, 0x64, 0x5f, 0x31, 0x2f, 0x4d, 0x61, 0x78, 0x50, 0x6f,
  0x6f, 0x6c, 0x00, 0x00, 0x04, 0x00, 0x00, 0x00, 0xff, 0xff, 0xff, 0xff,
  0x07, 0x00, 0x00, 0x00, 0x01, 0x00, 0x00, 0x00, 0x10, 0x00, 0x00, 0x00,
  0xe4, 0xd1, 0xff, 0xff, 0x1a, 0xfe, 0xff, 0xff, 0x00, 0x00, 0x00, 0x01,
  0x24, 0x00, 0x00, 0x00, 0x18, 0x00, 0x00, 0x00, 0x04, 0x00, 0x00, 0x00,
  0x0c, 0xfe, 0xff, 0xff, 0x01, 0x00, 0x00, 0x00, 0x01, 0x00, 0x00, 0x00,
  0x00, 0x00, 0x00, 0x01, 0x01, 0x00, 0x00, 0x00, 0x0c, 0x00, 0x00, 0x00,
  0x03, 0x00, 0x00, 0x00, 0x0b, 0x00, 0x00, 0x00, 0x09, 0x00, 0x00, 0x00,
  0x02, 0x00, 0x00, 0x00, 0x90, 0xd2, 0xff, 0xff, 0x14, 0x00, 0x00, 0x00,
  0x0d, 0x00, 0x00, 0x00, 0x20, 0x00, 0x00, 0x00, 0xb8, 0x00, 0x00, 0x00,
  0xa0, 0x00, 0x00, 0x00, 0x04, 0x00, 0x00, 0x00, 0x01, 0x00, 0x00, 0x00,
  0x15, 0x00, 0x00, 0x00, 0x01, 0x00, 0x00, 0x00, 0x10, 0x00, 0x00, 0x00,
  0x83, 0x00, 0x00, 0x00, 0x73, 0x65, 0x71, 0x75, 0x65, 0x6e, 0x74, 0x69,
  0x61, 0x6c, 0x2f, 0x63, 0x6f, 0x6e, 0x76, 0x32, 0x64, 0x5f, 0x31, 0x2f,
  0x52, 0x65, 0x6c, 0x75, 0x3b, 0x73, 0x65, 0x71, 0x75, 0x65, 0x6e, 0x74,
  0x69, 0x61, 0x6c, 0x2f, 0x63, 0x6f, 0x6e, 0x76, 0x32, 0x64, 0x5f, 0x31,
  0x2f, 0x42, 0x69, 0x61, 0x73, 0x41, 0x64, 0x64, 0x3b, 0x73, 0x65, 0x71,
  0x75, 0x65, 0x6e, 0x74, 0x69, 0x61, 0x6c, 0x2f, 0x63, 0x6f, 0x6e, 0x76,
  0x32, 0x64, 0x5f, 0x31, 0x2f, 0x43, 0x6f, 0x6e, 0x76, 0x32, 0x44, 0x3b,
  0x73, 0x65, 0x71, 0x75, 0x65, 0x6e, 0x74, 0x69, 0x61, 0x6c, 0x2f, 0x63,
  0x6f, 0x6e, 0x76, 0x32, 0x64, 0x5f, 0x31, 0x2f, 0x42, 0x69, 0x61, 0x73,
  0x41, 0x64, 0x64, 0x2f, 0x52, 0x65, 0x61, 0x64, 0x56, 0x61, 0x72, 0x69,
  0x61, 0x62, 0x6c, 0x65, 0x4f, 0x70, 0x2f, 0x72, 0x65, 0x73, 0x6f, 0x75,
  0x72, 0x63, 0x65, 0x00, 0x04, 0x00, 0x00, 0x00, 0xff, 0xff, 0xff, 0xff,
  0x15, 0x00, 0x00, 0x00, 0x01, 0x00, 0x00, 0x00, 0x10, 0x00, 0x00, 0x00,
  0xfc, 0xd3, 0xff, 0xff, 0x00, 0x00, 0x0e, 0x00, 0x1a, 0x00, 0x08, 0x00,
  0x0c, 0x00, 0x10, 0x00, 0x07, 0x00, 0x14, 0x00, 0x0e, 0x00, 0x00, 0x00,
  0x00, 0x00, 0x00, 0x05, 0x01, 0x00, 0x00, 0x00, 0x3c, 0x00, 0x00, 0x00,
  0x30, 0x00, 0x00, 0x00, 0x14, 0x00, 0x00, 0x00, 0x00, 0x00, 0x0e, 0x00,
  0x18, 0x00, 0x17, 0x00, 0x10, 0x00, 0x0c, 0x00, 0x08, 0x00, 0x04, 0x00,
  0x0e, 0x00, 0x00, 0x00, 0x03, 0x00, 0x00, 0x00, 0x03, 0x00, 0x00, 0x00,
  0x03, 0x00, 0x00, 0x00, 0x03, 0x00, 0x00, 0x00, 0x00, 0x00, 0x00, 0x01,
  0x01, 0x00, 0x00, 0x00, 0x0b, 0x00, 0x00, 0x00, 0x01, 0x00, 0x00, 0x00,
  0x0a, 0x00, 0x00, 0x00, 0x2c, 0xff, 0xff, 0xff, 0x11, 0x00, 0x00, 0x00,
  0x00, 0x00, 0x00, 0x11, 0x01, 0x00, 0x00, 0x00, 0xcc, 0xd3, 0xff, 0xff,
  0x14, 0x00, 0x00, 0x00, 0x0c, 0x00, 0x00, 0x00, 0x20, 0x00, 0x00, 0x00,
  0x58, 0x00, 0x00, 0x00, 0x40, 0x00, 0x00, 0x00, 0x04, 0x00, 0x00, 0x00,
  0x01, 0x00, 0x00, 0x00, 0x15, 0x00, 0x00, 0x00, 0x01, 0x00, 0x00, 0x00,
  0x08, 0x00, 0x00, 0x00, 0x20, 0x00, 0x00, 0x00, 0x73, 0x65, 0x71, 0x75,
  0x65, 0x6e, 0x74, 0x69, 0x61, 0x6c, 0x2f, 0x6d, 0x61, 0x78, 0x5f, 0x70,
  0x6f, 0x6f, 0x6c, 0x69, 0x6e, 0x67, 0x32, 0x64, 0x2f, 0x4d, 0x61, 0x78,
  0x50, 0x6f, 0x6f, 0x6c, 0x00, 0x00, 0x00, 0x00, 0x04, 0x00, 0x00, 0x00,
  0xff, 0xff, 0xff, 0xff, 0x15, 0x00, 0x00, 0x00, 0x01, 0x00, 0x00, 0x00,
  0x08, 0x00, 0x00, 0x00, 0xd8, 0xd4, 0xff, 0xff, 0x00, 0x00, 0x0e, 0x00,
  0x14, 0x00, 0x00, 0x00, 0x08, 0x00, 0x0c, 0x00, 0x07, 0x00, 0x10, 0x00,
  0x0e, 0x00, 0x00, 0x00, 0x00, 0x00, 0x00, 0x01, 0x30, 0x00, 0x00, 0x00,
  0x24, 0x00, 0x00, 0x00, 0x10, 0x00, 0x00, 0x00, 0x0c, 0x00, 0x10, 0x00,
  0x00, 0x00, 0x04, 0x00, 0x08, 0x00, 0x0f, 0x00, 0x0c, 0x00, 0x00, 0x00,
  0x01, 0x00, 0x00, 0x00, 0x01, 0x00, 0x00, 0x00, 0x00, 0x00, 0x00, 0x01,
  0x01, 0x00, 0x00, 0x00, 0x0a, 0x00, 0x00, 0x00, 0x03, 0x00, 0x00, 0x00,
  0x00, 0x00, 0x00, 0x00, 0x08, 0x00, 0x00, 0x00, 0x01, 0x00, 0x00, 0x00,
  0x0c, 0x00, 0x10, 0x00, 0x0b, 0x00, 0x00, 0x00, 0x0c, 0x00, 0x04, 0x00,
  0x0c, 0x00, 0x00, 0x00, 0x03, 0x00, 0x00, 0x00, 0x00, 0x00, 0x00, 0x03,
  0x01, 0x00, 0x00, 0x00, 0xac, 0xd4, 0xff, 0xff, 0x14, 0x00, 0x00, 0x00,
  0x0b, 0x00, 0x00, 0x00, 0x20, 0x00, 0x00, 0x00, 0xb0, 0x00, 0x00, 0x00,
  0x98, 0x00, 0x00, 0x00, 0x04, 0x00, 0x00, 0x00, 0x01, 0x00, 0x00, 0x00,
  0x40, 0x00, 0x00, 0x00, 0x03, 0x00, 0x00, 0x00, 0x08, 0x00, 0x00, 0x00,
  0x7b, 0x00, 0x00, 0x00, 0x73, 0x65, 0x71, 0x75, 0x65, 0x6e, 0x74, 0x69,
  0x61, 0x6c, 0x2f, 0x63, 0x6f, 0x6e, 0x76, 0x32, 0x64, 0x2f, 0x52, 0x65,
  0x6c, 0x75, 0x3b, 0x73, 0x65, 0x71, 0x75, 0x65, 0x6e, 0x74, 0x69, 0x61,
  0x6c, 0x2f, 0x63, 0x6f, 0x6e, 0x76, 0x32, 0x64, 0x2f, 0x42, 0x69, 0x61,
  0x73, 0x41, 0x64, 0x64, 0x3b, 0x73, 0x65, 0x71, 0x75, 0x65, 0x6e, 0x74,
  0x69, 0x61, 0x6c, 0x2f, 0x63, 0x6f, 0x6e, 0x76, 0x32, 0x64, 0x2f, 0x43,
  0x6f, 0x6e, 0x76, 0x32, 0x44, 0x3b, 0x73, 0x65, 0x71, 0x75, 0x65, 0x6e,
  0x74, 0x69, 0x61, 0x6c, 0x2f, 0x63, 0x6f, 0x6e, 0x76, 0x32, 0x64, 0x2f,
  0x42, 0x69, 0x61, 0x73, 0x41, 0x64, 0x64, 0x2f, 0x52, 0x65, 0x61, 0x64,
  0x56, 0x61, 0x72, 0x69, 0x61, 0x62, 0x6c, 0x65, 0x4f, 0x70, 0x2f, 0x72,
  0x65, 0x73, 0x6f, 0x75, 0x72, 0x63, 0x65, 0x00, 0x04, 0x00, 0x00, 0x00,
  0xff, 0xff, 0xff, 0xff, 0x40, 0x00, 0x00, 0x00, 0x03, 0x00, 0x00, 0x00,
  0x08, 0x00, 0x00, 0x00, 0x00, 0xd5, 0xff, 0xff, 0x0a, 0xd6, 0xff, 0xff,
  0x04, 0x00, 0x00, 0x00, 0x00, 0x08, 0x00, 0x00, 0x23, 0x4d, 0x75, 0xbc,
  0x6d, 0x84, 0x34, 0xbe, 0x72, 0x92, 0xc2, 0xbe, 0x7b, 0x80, 0x88, 0xbd,
  0xfa, 0x4d, 0x27, 0xbe, 0x5e, 0xe9, 0x97, 0xbe, 0x23, 0xa2, 0x83, 0xbe,
  0xda, 0xee, 0xaf, 0xbe, 0x98, 0x30, 0xe9, 0xbd, 0x90, 0x40, 0x4a, 0xbd,
  0xc8, 0x73, 0x9b, 0xbd, 0xe7, 0xea, 0xb2, 0xbd, 0xe1, 0x6e, 0x15, 0x3d,
  0x00, 0x0d, 0xa2, 0xbe, 0x14, 0x41, 0x64, 0x3e, 0xb8, 0x83, 0xd7, 0xbd,
  0x3c, 0xf7, 0x41, 0x3e, 0x5b, 0xa2, 0x36, 0x3b, 0x6b, 0xbd, 0xf4, 0x3d,
  0x84, 0x5f, 0xe5, 0xbd, 0xc1, 0xc8, 0xd0, 0x3d, 0x86, 0x47, 0x8b, 0xbe,
  0x39, 0xa5, 0x9f, 0x3e, 0x90, 0x0e, 0x9b, 0x3d, 0x2c, 0xdd, 0x3f, 0x3e,
  0x73, 0xe6, 0x1c, 0xbd, 0xc7, 0xce, 0x48, 0x3e, 0xe2, 0xaf, 0xe4, 0x3c,
  0x44, 0xb3, 0x5e, 0x3c, 0xba, 0xe3, 0x5a, 0xbe, 0xe0, 0xc2, 0xb5, 0x3d,
  0xe4, 0x62, 0x13, 0x3e, 0xd3, 0xe3, 0x98, 0xbd, 0x25, 0x2f, 0x31, 0xbe,
  0x4f, 0x28, 0x93, 0x3d, 0x63, 0x06, 0x20, 0xbf, 0x95, 0x3c, 0xb0, 0x3d,
  0xb5, 0x23, 0x3b, 0x3e, 0x89, 0x22, 0x6c, 0xbd, 0x9f, 0x46, 0xcc, 0x3d,
  0x6b, 0xe5, 0x51, 0xbe, 0x47, 0x1e, 0x23, 0xbf, 0xa3, 0xc5, 0xce, 0xbe,
  0xad, 0xa1, 0xb1, 0xbe, 0x99, 0x9c, 0x51, 0x3c, 0x82, 0x48, 0xc3, 0xbb,
  0x73, 0xde, 0x12, 0xbe, 0x7a, 0xcc, 0xf0, 0xbd, 0xf4, 0xef, 0x06, 0x3e,
  0xd7, 0xfc, 0xc3, 0xbe, 0x75, 0xf9, 0x94, 0x3e, 0x8b, 0x5b, 0x6d, 0xbe,
  0x00, 0x3a, 0x20, 0xba, 0x46, 0x00, 0x30, 0xbe, 0xc6, 0xe7, 0xc2, 0xbd,
  0x5c, 0xe0, 0x46, 0x3e, 0xfc, 0x1c, 0xbd, 0xbe, 0xcc, 0x42, 0x2c, 0xbe,
  0x4c, 0xe2, 0x72, 0xbe, 0x4d, 0xb6, 0x6f, 0xbe, 0x2d, 0x2a, 0xaa, 0xbe,
  0xc5, 0x96, 0xa7, 0xbe, 0x68, 0xed, 0x8e, 0xbe, 0x6c, 0xa8, 0x92, 0xbe,
  0x96, 0x3d, 0x07, 0xbe, 0x0d, 0xa3, 0xba, 0xbe, 0x0c, 0x5d, 0x8c, 0xbe,
  0xda, 0x7a, 0x96, 0xbe, 0x19, 0xcc, 0x0f, 0xbe, 0x9d, 0x37, 0xf6, 0xbc,
  0x7b, 0xe3, 0xa1, 0xbe, 0xde, 0x44, 0x77, 0xba, 0x9d, 0xb1, 0x4b, 0x3e,
  0xa3, 0x81, 0x63, 0x3e, 0xc7, 0x45, 0x21, 0xbe, 0x49, 0xc8, 0x6a, 0xbe,
  0x46, 0x84, 0x10, 0xbe, 0x92, 0xd3, 0x65, 0x3d, 0x72, 0xf0, 0xdd, 0xbe,
  0xcb, 0xe3, 0x86, 0x3e, 0xa3, 0xe3, 0xd2, 0x3d, 0x1c, 0x87, 0x33, 0x3e,
  0xd1, 0xa6, 0x21, 0x3e, 0x1b, 0xf0, 0x72, 0x3e, 0x33, 0x30, 0xbb, 0xbd,
  0xaa, 0x0f, 0xe6, 0xbd, 0x6b, 0x4b, 0x79, 0x3e, 0xef, 0x80, 0xd5, 0xbd,
  0x96, 0xb4, 0xc0, 0x3c, 0xad, 0x9c, 0x1c, 0x3e, 0xf0, 0x36, 0x9a, 0x3e,
  0x7d, 0xa7, 0x84, 0xbd, 0x51, 0x49, 0x75, 0xbb, 0x20, 0xda, 0x1f, 0xbe,
  0xf8, 0x51, 0xdd, 0x3e, 0x9a, 0x27, 0x25, 0xbe, 0x13, 0x61, 0x87, 0x3e,
  0x8d, 0x47, 0x78, 0x3e, 0x51, 0x27, 0x5e, 0x3e, 0x3f, 0x7c, 0x0d, 0x3e,
  0xac, 0x57, 0xed, 0x3d, 0x18, 0xe7, 0x85, 0x3d, 0xe7, 0xef, 0x0d, 0xbe,
  0xbb, 0x8b, 0xe7, 0x3e, 0x64, 0x01, 0x9e, 0xbc, 0x64, 0x92, 0x19, 0x3e,
  0xf3, 0x08, 0x07, 0x3e, 0x4e, 0x10, 0xcb, 0x3d, 0xb3, 0xcb, 0x8e, 0xbc,
  0xe3, 0xa0, 0xb2, 0xbd, 0xfe, 0x56, 0x7a, 0xbd, 0xc5, 0x9b, 0x1d, 0xbd,
  0x03, 0xdb, 0x5d, 0xbe, 0xe9, 0xf5, 0x6a, 0xbd, 0xa4, 0x7c, 0xc0, 0xbd,
  0xa5, 0x30, 0xed, 0x3d, 0x44, 0x91, 0xc3, 0xbd, 0xcc, 0x09, 0x77, 0xbe,
  0x3a, 0x06, 0x55, 0x3d, 0x47, 0xf1, 0x27, 0xbe, 0xa2, 0xe5, 0x7b, 0xbd,
  0x54, 0xcf, 0xc9, 0xbe, 0x4a, 0x2f, 0x1b, 0xbe, 0x29, 0xc2, 0x96, 0xbe,
  0xd0, 0xa0, 0xd7, 0xbd, 0xbd, 0xd2, 0x6f, 0xbe, 0x68, 0x10, 0xcb, 0x3d,
  0x10, 0x6b, 0x84, 0xbe, 0x62, 0x0f, 0x11, 0xbd, 0x0f, 0xef, 0x59, 0xbe,
  0xd5, 0xf2, 0x43, 0xbe, 0x78, 0x27, 0xeb, 0x3e, 0x31, 0x7c, 0x91, 0xbe,
  0xa9, 0xe8, 0xae, 0xbe, 0xb0, 0x4a, 0x78, 0xbe, 0xb4, 0x27, 0xca, 0xbd,
  0x90, 0xcd, 0xd7, 0xbd, 0x9d, 0x4c, 0x1f, 0xbe, 0xe5, 0x47, 0x64, 0x3c,
  0xc8, 0x92, 0x13, 0xbf, 0x0f, 0xe1, 0x25, 0xbd, 0xf8, 0x0d, 0x25, 0xbf,
  0x76, 0x42, 0xd4, 0xbd, 0x34, 0x70, 0x0e, 0xbe, 0x49, 0xd3, 0xac, 0x3d,
  0x2e, 0x19, 0x9e, 0xbd, 0x34, 0x51, 0xf6, 0x3d, 0xbc, 0x86, 0xac, 0xbd,
  0x37, 0xe8, 0x62, 0x3e, 0x4a, 0xd4, 0xc6, 0xbe, 0xbf, 0xa5, 0x4f, 0x3d,
  0x1a, 0xbb, 0xa6, 0xbd, 0xd4, 0x21, 0x5f, 0x3d, 0x20, 0x33, 0xa8, 0xbd,
  0xf5, 0x47, 0xa8, 0xbd, 0xc8, 0xd3, 0x84, 0x3b, 0xc2, 0xe2, 0x46, 0x3e,
  0x57, 0x41, 0x0c, 0xbf, 0xa0, 0xa0, 0x30, 0xbd, 0x36, 0x35, 0x35, 0xbe,
  0x2f, 0xdd, 0x79, 0xbe, 0xb4, 0x8a, 0x47, 0xbe, 0xf4, 0x3c, 0xb6, 0xbe,
  0xe3, 0x56, 0xbd, 0xbe, 0x56, 0x3d, 0xd0, 0xbe, 0xda, 0xdc, 0xda, 0xbd,
  0x22, 0x2e, 0x6e, 0xbe, 0xf3, 0x94, 0x3a, 0xbe, 0xb0, 0x87, 0xad, 0xbc,
  0xbf, 0x1f, 0x4b, 0xbe, 0x6d, 0x63, 0x40, 0xbe, 0x69, 0xe4, 0xdc, 0x3e,
  0x8a, 0xdd, 0xfd, 0xbc, 0x43, 0x77, 0xe7, 0xbd, 0x8c, 0x30, 0x11, 0xbc,
  0xe9, 0xda, 0x4c, 0xbe, 0x92, 0x48, 0x83, 0x3e, 0x20, 0xd8, 0x17, 0x3d,
  0x08, 0x21, 0x35, 0x3e, 0x1b, 0xa0, 0xc1, 0xbd, 0x05, 0xd6, 0xc7, 0xbd,
  0xb0, 0x3e, 0x7f, 0xbe, 0x75, 0x85, 0x75, 0xbd, 0x94, 0x9b, 0xab, 0xbb,
  0x2f, 0xe4, 0x6e, 0x3e, 0x58, 0xd0, 0x1c, 0xbe, 0x1d, 0xdc, 0x8c, 0x3d,
  0x15, 0x9f, 0x11, 0xbd, 0x43, 0x63, 0x09, 0xbe, 0xc0, 0xb2, 0x2d, 0xbe,
  0x47, 0x0c, 0x56, 0xbd, 0xd2, 0x42, 0x57, 0x3d, 0x55, 0xec, 0xd8, 0x3d,
  0x11, 0x18, 0xe8, 0xbe, 0x5c, 0x9f, 0xa9, 0xbe, 0x7a, 0x15, 0x5c, 0xbe,
  0x57, 0x74, 0x63, 0xbd, 0xbb, 0x69, 0x13, 0xbe, 0x11, 0x9e, 0xf6, 0x3a,
  0xc7, 0x68, 0x0c, 0xbe, 0xee, 0xd1, 0x78, 0xbe, 0xf2, 0x14, 0xe4, 0xbe,
  0x35, 0xa0, 0xce, 0xbe, 0x53, 0x9b, 0xab, 0xbe, 0xb3, 0x14, 0x83, 0xbd,
  0x21, 0xec, 0xa2, 0xbc, 0x41, 0x2c, 0x1a, 0xbe, 0xec, 0x09, 0xa5, 0xbd,
  0xc6, 0x4e, 0xd0, 0x3e, 0x9c, 0x38, 0xa2, 0xbd, 0x13, 0x72, 0x36, 0xbd,
  0x9d, 0x0e, 0x69, 0xbe, 0x3a, 0x85, 0x6e, 0xbd, 0x16, 0x76, 0x3f, 0xbd,
  0xed, 0x80, 0xfa, 0xbc, 0x02, 0x3b, 0x1d, 0xbd, 0xd4, 0x85, 0x59, 0x3e,
  0x78, 0xa0, 0xdd, 0x3e, 0xe4, 0x3e, 0xc7, 0x3e, 0x0e, 0x34, 0x58, 0x3e,
  0xab, 0xe4, 0xfb, 0x3c, 0x5a, 0xb7, 0x98, 0x3c, 0x84, 0x19, 0x03, 0x3e,
  0xf0, 0x11, 0xf2, 0x3e, 0x3b, 0xa7, 0xa7, 0x3e, 0x23, 0x32, 0xfa, 0x3d,
  0x06, 0x56, 0x03, 0x3e, 0xe4, 0xaa, 0x64, 0x3e, 0x7c, 0x44, 0x08, 0xbf,
  0x61, 0x20, 0x65, 0x3c, 0x7d, 0x39, 0xff, 0xbd, 0xe9, 0xce, 0xac, 0x3c,
  0x02, 0x1b, 0xd3, 0xbc, 0x9d, 0xba, 0xae, 0x3d, 0x4f, 0x9c, 0x19, 0x3c,
  0xb0, 0xbd, 0xfc, 0x3e, 0x06, 0xe9, 0x0e, 0xbf, 0xf2, 0xc3, 0x3c, 0xbe,
  0x89, 0xb8, 0x82, 0x3a, 0x6d, 0x8f, 0x30, 0xbe, 0x9d, 0x6a, 0xe2, 0x3c,
  0x46, 0xe2, 0xdf, 0x3d, 0xd9, 0xb8, 0x60, 0x3d, 0xa1, 0x3b, 0x8e, 0x3e,
  0x82, 0x8c, 0xe7, 0xbe, 0xf8, 0x7a, 0x22, 0xbb, 0x9d, 0x1e, 0xa4, 0x3c,
  0x40, 0x2a, 0x8f, 0xbe, 0x8b, 0xe7, 0xce, 0x3e, 0xbb, 0x58, 0x16, 0xbe,
  0x44, 0x92, 0x3f, 0xbc, 0xbb, 0x65, 0x92, 0x3e, 0x86, 0x36, 0x05, 0xbf,
  0x65, 0xb9, 0xce, 0xbd, 0x97, 0xdf, 0x01, 0xbe, 0x4a, 0xc9, 0x29, 0xbe,
  0xaf, 0x62, 0x86, 0x3f, 0x7d, 0xfc, 0x9d, 0xbe, 0xc4, 0x1c, 0x85, 0xbd,
  0xf4, 0x6a, 0x8b, 0xbe, 0x30, 0x11, 0x31, 0xbd, 0xd5, 0xdc, 0xb5, 0xbe,
  0xd1, 0x6d, 0x01, 0xbd, 0x08, 0x3e, 0x60, 0xbe, 0x08, 0x5f, 0xa1, 0x3d,
  0x89, 0x39, 0x9c, 0xbe, 0x87, 0xe6, 0xbd, 0xbe, 0xe6, 0x80, 0xd9, 0xbe,
  0x5d, 0x83, 0xec, 0xbc, 0xd2, 0x33, 0x48, 0xbe, 0x1a, 0xe7, 0xc7, 0x3b,
  0x54, 0x56, 0xd1, 0xbd, 0xf2, 0xda, 0xb1, 0x3c, 0x6a, 0xdd, 0xcb, 0x3d,
  0x3b, 0x0e, 0x03, 0xbe, 0xf5, 0x4d, 0x46, 0xbe, 0xae, 0x1e, 0xce, 0xbc,
  0xff, 0x6f, 0x24, 0xbe, 0x0e, 0xb3, 0xc4, 0xbc, 0x4f, 0x92, 0x9c, 0x3e,
  0xa4, 0x88, 0x6d, 0xbd, 0x2d, 0xfc, 0x3d, 0x3d, 0xdf, 0x09, 0x6f, 0xbd,
  0x60, 0x2c, 0x16, 0x3c, 0x04, 0xce, 0x8d, 0x3c, 0x2c, 0x5b, 0xfa, 0xbd,
  0x04, 0xc3, 0xce, 0xbd, 0x4d, 0x20, 0xd4, 0x3e, 0xe2, 0x02, 0x1d, 0xbf,
  0x0c, 0xce, 0x1f, 0x3d, 0x14, 0x8d, 0x7d, 0xbe, 0xcb, 0xfb, 0x51, 0xbe,
  0x61, 0x80, 0x68, 0xbd, 0xd8, 0xc5, 0xa9, 0x3c, 0x5a, 0x4f, 0x15, 0xbe,
  0xea, 0x72, 0x4d, 0x3d, 0x14, 0xcd, 0x0d, 0x3e, 0xe7, 0x2e, 0xa8, 0x3e,
  0x8b, 0x00, 0xa2, 0x3e, 0xd9, 0x4f, 0x1a, 0xbe, 0xb2, 0x92, 0x14, 0xbd,
  0xb3, 0xc4, 0x73, 0xbe, 0xbb, 0xa6, 0xdb, 0xbb, 0x2f, 0x88, 0x21, 0xbc,
  0xb9, 0xbd, 0xbd, 0x3e, 0x47, 0xe7, 0xe4, 0x3d, 0x6b, 0x7f, 0x1b, 0x3f,
  0xd0, 0x65, 0x44, 0x3e, 0x50, 0x3e, 0x5b, 0x3c, 0x5a, 0xc3, 0xbf, 0xbe,
  0x23, 0x77, 0x9a, 0x3d, 0x2b, 0xcc, 0xeb, 0xbd, 0xc6, 0x0e, 0x8f, 0x3e,
  0xa6, 0x2a, 0xe7, 0xbe, 0x21, 0xe9, 0xa1, 0xbe, 0x57, 0xb4, 0x87, 0x3b,
  0xdf, 0x21, 0xe8, 0x3c, 0x6a, 0xe1, 0xa8, 0xbe, 0xcc, 0x84, 0x5c, 0xbd,
  0x78, 0x51, 0x16, 0xbe, 0xaf, 0x64, 0x41, 0x3c, 0x4d, 0xa9, 0x0e, 0x3c,
  0xca, 0x90, 0x1c, 0xbe, 0x8c, 0x23, 0x48, 0xbe, 0x16, 0x86, 0xd7, 0xbe,
  0x6e, 0x59, 0x96, 0x3e, 0x1f, 0xf0, 0x30, 0x3e, 0x07, 0xfa, 0x54, 0x3e,
  0x08, 0xc1, 0xce, 0xbc, 0x2b, 0x5f, 0x8e, 0xbe, 0xe7, 0xcc, 0x59, 0xbe,
  0x91, 0xdc, 0x7a, 0xbe, 0x3a, 0x4b, 0x0f, 0xbf, 0xbe, 0x07, 0x7a, 0xbc,
  0x00, 0x7f, 0x69, 0x3e, 0xb3, 0xd2, 0xc0, 0x3c, 0x4b, 0xe9, 0x8b, 0x3d,
  0x69, 0x01, 0x16, 0xbc, 0x10, 0x94, 0x51, 0x3e, 0xa6, 0x78, 0x4d, 0xbd,
  0x1e, 0x41, 0xa1, 0xbe, 0x1e, 0x4c, 0x2d, 0x3d, 0xfb, 0xea, 0x4b, 0xbc,
  0x2a, 0x5b, 0x90, 0xbd, 0x40, 0x22, 0x9b, 0x3c, 0x06, 0xd7, 0x88, 0xbd,
  0x8f, 0xa9, 0xb3, 0x3d, 0x9b, 0x03, 0xab, 0xbe, 0x9b, 0x6f, 0xb0, 0xbe,
  0xb1, 0xb9, 0xf7, 0x3c, 0xf8, 0xc1, 0xdd, 0x3d, 0x06, 0xa0, 0x66, 0x3c,
  0xdf, 0x42, 0x92, 0x3e, 0x41, 0xa8, 0xd0, 0xbc, 0x7d, 0x42, 0xd9, 0x3d,
  0x22, 0xcf, 0x4e, 0xbe, 0xba, 0xa8, 0xc5, 0x3d, 0xc6, 0x56, 0x45, 0x3d,
  0xce, 0xb5, 0x9a, 0x3e, 0xa5, 0xdb, 0x10, 0xbe, 0x55, 0x19, 0xe5, 0x3d,
  0x0a, 0xdc, 0x06, 0xbe, 0xa8, 0xe6, 0x38, 0xbe, 0xc1, 0x68, 0xe6, 0x3c,
  0xe1, 0x99, 0x0a, 0x3d, 0x55, 0x4a, 0x2a, 0x3e, 0x7c, 0x8b, 0xa7, 0x3e,
  0x10, 0x1c, 0x4c, 0xbd, 0xb7, 0xba, 0xf9, 0x3d, 0x75, 0xb1, 0xe1, 0xbd,
  0x89, 0x00, 0xd3, 0xbd, 0xb4, 0x69, 0xa9, 0xbd, 0x59, 0x54, 0xf8, 0xbd,
  0x62, 0x33, 0x6d, 0xbd, 0xe7, 0x0c, 0x34, 0xbe, 0x6c, 0xf3, 0xfc, 0xbd,
  0x16, 0xf7, 0x00, 0xbe, 0xf8, 0x73, 0x9a, 0xbd, 0x4c, 0x01, 0xee, 0xbd,
  0x01, 0x5a, 0xc2, 0xbd, 0x87, 0x9b, 0x46, 0xbe, 0x09, 0x77, 0xf2, 0x3e,
  0xe5, 0x1a, 0x16, 0x3d, 0x84, 0x62, 0xf9, 0xbd, 0xfa, 0x13, 0xd4, 0xbd,
  0xe3, 0xe5, 0x49, 0x3d, 0x60, 0x4e, 0x81, 0xbd, 0xd7, 0xff, 0xa4, 0xbe,
  0x9b, 0x20, 0x82, 0xbc, 0xcc, 0x9d, 0x25, 0xbe, 0xcc, 0xf6, 0x33, 0xbe,
  0x72, 0xa4, 0x54, 0xbe, 0xeb, 0xe1, 0xa3, 0xbe, 0xed, 0x82, 0x55, 0x3d,
  0x13, 0xa3, 0x8c, 0xbd, 0x4b, 0xfd, 0x82, 0xbe, 0x5c, 0x0c, 0x21, 0xbd,
  0x3c, 0x36, 0xd3, 0xbd, 0x9f, 0x1d, 0xf2, 0xbe, 0xe8, 0x23, 0x4e, 0xbe,
  0x23, 0xf0, 0xa2, 0xbc, 0x4e, 0x5d, 0xa9, 0x3d, 0x3f, 0xb8, 0xb8, 0xbe,
  0xd5, 0xbf, 0xaf, 0xbe, 0x48, 0xc9, 0x23, 0xbd, 0x30, 0x15, 0xfb, 0xbb,
  0xef, 0x1c, 0xbc, 0xbe, 0xad, 0xb6, 0x6e, 0xbe, 0xf5, 0xee, 0xa1, 0xbd,
  0x97, 0xf8, 0x14, 0x3d, 0x14, 0x18, 0xdf, 0xbd, 0x61, 0xe2, 0xcf, 0xbd,
  0x9b, 0x12, 0x82, 0xbe, 0x0b, 0xf3, 0x1c, 0x3d, 0x20, 0x34, 0x1a, 0xbe,
  0x53, 0xad, 0x35, 0x3d, 0x0c, 0xa3, 0x11, 0xbe, 0xc8, 0x1f, 0xd9, 0xbd,
  0xb6, 0x8c, 0x85, 0xbd, 0x44, 0x56, 0x12, 0xbe, 0x99, 0xe5, 0x6d, 0x3d,
  0x38, 0xc3, 0xc8, 0xbd, 0x34, 0xc3, 0x33, 0xbe, 0x7b, 0x5d, 0x81, 0xbd,
  0x03, 0x78, 0xe6, 0xbc, 0x0a, 0x67, 0x64, 0xbc, 0xdd, 0x14, 0x16, 0xbb,
  0x10, 0x6c, 0x7e, 0xbd, 0xe0, 0xf4, 0xdd, 0x3e, 0x95, 0xa3, 0xb7, 0xbd,
  0xae, 0x7a, 0x89, 0xbd, 0x93, 0x09, 0x4c, 0xbd, 0xb7, 0x4d, 0xe1, 0xbd,
  0xd5, 0x0f, 0xb0, 0x3d, 0x0e, 0xb3, 0x7d, 0xbd, 0xb9, 0xc6, 0xbf, 0xbd,
  0x61, 0x38, 0xdd, 0xbd, 0x2a, 0xc6, 0xe2, 0xbd, 0x1b, 0xfc, 0x15, 0xbe,
  0xdd, 0x82, 0xcf, 0x3d, 0x48, 0xa0, 0x2d, 0xbe, 0x4e, 0xcb, 0x61, 0x3c,
  0x7f, 0x79, 0xa8, 0x3d, 0xaa, 0xf9, 0x85, 0xbd, 0x79, 0xfd, 0x47, 0x3c,
  0x1c, 0x56, 0xb1, 0xbd, 0x58, 0xf9, 0x5e, 0xbe, 0x69, 0xc5, 0x45, 0x3e,
  0x8e, 0x33, 0xb2, 0xbd, 0x02, 0x70, 0xcd, 0x3d, 0x5c, 0x3b, 0x7b, 0xbd,
  0xec, 0x26, 0x87, 0x3e, 0x11, 0x66, 0x07, 0xbd, 0x37, 0x43, 0x18, 0xbc,
  0xa4, 0x8f, 0xef, 0xbd, 0xc0, 0x54, 0x1e, 0xbe, 0xab, 0xb5, 0x84, 0x3e,
  0x42, 0xd7, 0xbc, 0xbd, 0xcc, 0xff, 0x43, 0xbd, 0xc3, 0xd3, 0x5f, 0x3e,
  0x79, 0x25, 0x03, 0xbd, 0xda, 0xd4, 0x9c, 0xbd, 0xfc, 0x04, 0x04, 0xbd,
  0x0e, 0x6c, 0x5e, 0xbe, 0xae, 0xc6, 0x10, 0x3e, 0xac, 0x53, 0xff, 0x3c,
  0x90, 0xa1, 0xd2, 0xbc, 0xa5, 0xac, 0xa5, 0xbe, 0xea, 0x4d, 0x7f, 0x3d,
  0x0c, 0xdd, 0xee, 0xbc, 0xa1, 0xcb, 0xa2, 0x3e, 0x43, 0x8b, 0xc2, 0xbd,
  0x28, 0x57, 0xa3, 0xbd, 0xe9, 0x95, 0xa1, 0xbd, 0xeb, 0x4f, 0xbd, 0x3d,
  0x4f, 0x00, 0x18, 0xbe, 0x4c, 0x1f, 0x2d, 0x3e, 0xe6, 0xc9, 0x80, 0xbd,
  0x3d, 0x18, 0xaf, 0x3e, 0x4e, 0xbc, 0x84, 0xbd, 0x43, 0x85, 0x62, 0x3f,
  0x74, 0xc9, 0xb1, 0xbe, 0x77, 0x4d, 0x61, 0xbe, 0x90, 0x5e, 0xc7, 0xbd,
  0x8a, 0x08, 0x7f, 0xbe, 0x75, 0x9a, 0xa9, 0xbd, 0xc2, 0x39, 0xc3, 0xbe,
  0xf3, 0x8c, 0x67, 0xbd, 0xf3, 0xdd, 0xc2, 0x3e, 0x07, 0xde, 0x18, 0x3d,
  0xd0, 0xbf, 0x6e, 0xbe, 0xd2, 0xec, 0x63, 0xbe, 0xaf, 0x6f, 0x73, 0xbe,
  0xcc, 0x7a, 0x6e, 0x3e, 0x33, 0xff, 0xfd, 0xbe, 0x2f, 0x84, 0x87, 0x3d,
  0x0d, 0xe5, 0x85, 0x3e, 0x55, 0x2e, 0x18, 0x3e, 0x7e, 0xe2, 0x47, 0x3e,
  0x20, 0xbd, 0xf4, 0x3d, 0xfa, 0xd3, 0x31, 0xbe, 0x8a, 0x07, 0xb5, 0xbd,
  0x5c, 0xa5, 0x5a, 0x3d, 0xa5, 0x85, 0xa9, 0xbd, 0x9e, 0x83, 0x90, 0xbd,
  0x96, 0x3e, 0x28, 0xbc, 0x23, 0x6e, 0x3d, 0x3c, 0x3e, 0x73, 0x10, 0x3d,
  0x27, 0xf6, 0x05, 0xbe, 0x77, 0xe2, 0xe1, 0xbc, 0xb4, 0x34, 0xff, 0x3c,
  0xfc, 0x23, 0xde, 0xbd, 0xe2, 0xdd, 0xff, 0xff, 0x10, 0x00, 0x00, 0x00,
  0x0a, 0x00, 0x00, 0x00, 0x1c, 0x00, 0x00, 0x00, 0x38, 0x00, 0x00, 0x00,
  0x04, 0x00, 0x00, 0x00, 0x10, 0x00, 0x00, 0x00, 0x04, 0x00, 0x00, 0x00,
  0x01, 0x00, 0x00, 0x00, 0x08, 0x00, 0x00, 0x00, 0x1a, 0x00, 0x00, 0x00,
  0x73, 0x65, 0x71, 0x75, 0x65, 0x6e, 0x74, 0x69, 0x61, 0x6c, 0x2f, 0x63,
  0x6f, 0x6e, 0x76, 0x32, 0x64, 0x5f, 0x31, 0x2f, 0x43, 0x6f, 0x6e, 0x76,
  0x32, 0x44, 0x00, 0x00, 0x58, 0xdd, 0xff, 0xff, 0x62, 0xde, 0xff, 0xff,
  0x04, 0x00, 0x00, 0x00, 0x80, 0x01, 0x00, 0x00, 0x78, 0xde, 0xa9, 0xbe,
  0x27, 0xf9, 0x2a, 0xbe, 0x9d, 0x23, 0xa7, 0x3d, 0xb1, 0xc2, 0xb8, 0xbe,
  0x02, 0xd4, 0xc7, 0xbe, 0xed, 0xd2, 0x28, 0xbe, 0xbb, 0xb8, 0x8d, 0x3e,
  0xdd, 0xba, 0x28, 0x3e, 0x65, 0x2a, 0x61, 0xbc, 0x98, 0x3e, 0xc9, 0x3e,
  0x98, 0x96, 0xcb, 0x3e, 0xec, 0x6d, 0xcf, 0x3d, 0xc3, 0xa2, 0xfc, 0x3d,
  0xa6, 0x1a, 0x42, 0xbc, 0x8d, 0xab, 0x25, 0xbd, 0xfb, 0x72, 0x88, 0x3e,
  0x87, 0x7e, 0x84, 0x3e, 0xce, 0x03, 0x58, 0x3d, 0x7f, 0x29, 0x95, 0xbb,
  0xa2, 0xfe, 0x97, 0x3d, 0x24, 0x74, 0xf2, 0x3d, 0xe8, 0xd3, 0x8e, 0xbe,
  0x3d, 0xab, 0x93, 0xbe, 0x02, 0x7d, 0x4a, 0xbd, 0x5f, 0xe8, 0x27, 0x3e,
  0x88, 0x09, 0x98, 0xbc, 0x3b, 0x36, 0x09, 0x3e, 0x3d, 0x1d, 0xfa, 0x3e,
  0x18, 0x43, 0x1a, 0x3d, 0x83, 0xcb, 0x06, 0x3e, 0x3b, 0xb9, 0xa1, 0xbe,
  0xb8, 0x15, 0xb7, 0xbd, 0xe5, 0x45, 0x8a, 0xbe, 0x5d, 0xf3, 0x80, 0xbe,
  0x58, 0x1e, 0x2f, 0x3b, 0x7f, 0x9d, 0x14, 0x3e, 0x01, 0xed, 0x9e, 0xbd,
  0x50, 0x14, 0x01, 0x3f, 0x81, 0x70, 0x31, 0x3e, 0xe3, 0xe2, 0xbd, 0x3e,
  0x40, 0xc1, 0xb7, 0xbe, 0x57, 0x59, 0x80, 0x3d, 0x02, 0x20, 0x93, 0xbe,
  0x09, 0x2f, 0x37, 0x3d, 0x90, 0xf6, 0x65, 0x3d, 0x4b, 0x5b, 0x0f, 0x3e,
  0x87, 0x0c, 0xbb, 0xbc, 0xa0, 0x0d, 0x4c, 0xbe, 0xc6, 0xb2, 0x02, 0xbe,
  0xfe, 0x1f, 0x39, 0x3d, 0xc2, 0x33, 0x2c, 0x3e, 0xb3, 0xc8, 0x73, 0xbd,
  0x3f, 0x0d, 0xd5, 0x3c, 0xb5, 0x85, 0xa5, 0x3d, 0x4b, 0xff, 0x2b, 0xbd,
  0xdc, 0xb5, 0x12, 0x3d, 0x04, 0xff, 0x8c, 0x3d, 0x63, 0xaa, 0x2b, 0xbd,
  0xe3, 0x4a, 0xb6, 0x3d, 0x9f, 0x42, 0xe3, 0x3d, 0xf0, 0xca, 0x16, 0x3e,
  0x37, 0x8f, 0x1e, 0xbd, 0x82, 0xc9, 0x1d, 0xbe, 0x08, 0x6c, 0x68, 0xbe,
  0x4c, 0xbd, 0x8d, 0xbd, 0x3b, 0x74, 0xa0, 0x3d, 0xbd, 0x7e, 0xb9, 0x3e,
  0xc8, 0x84, 0x82, 0xbd, 0x5b, 0x0d, 0x5f, 0xbc, 0xd1, 0x2a, 0x17, 0x3f,
  0x76, 0x35, 0x98, 0x3e, 0x9c, 0xab, 0x3b, 0xbd, 0x06, 0xdf, 0x2f, 0xbe,
  0xba, 0x1d, 0xef, 0x3d, 0xb5, 0x20, 0x9e, 0xbe, 0x60, 0x46, 0x5d, 0x3e,
  0xc7, 0xf4, 0x8f, 0x3d, 0x45, 0x4a, 0x61, 0x3e, 0x7b, 0x67, 0x31, 0xbd,
  0x52, 0x62, 0x43, 0xbe, 0x35, 0xce, 0x86, 0xbd, 0x28, 0xcf, 0xa8, 0xbd,
  0x20, 0x01, 0x12, 0xbe, 0x8b, 0x3f, 0x16, 0x3e, 0x7a, 0xc4, 0x1b, 0xbe,
  0x4b, 0xf6, 0xb3, 0xbd, 0xa5, 0xb6, 0x10, 0x3c, 0x0d, 0x2f, 0x8e, 0xbd,
  0x3c, 0xe2, 0xb8, 0xbd, 0x70, 0x31, 0xa0, 0xbd, 0x83, 0xd7, 0x85, 0x3e,
  0x09, 0x97, 0xd2, 0x3d, 0xe3, 0x6c, 0x68, 0x3e, 0xe8, 0x56, 0x65, 0x3e,
  0xa2, 0x33, 0x08, 0x3e, 0xb3, 0x81, 0xb6, 0x3d, 0xba, 0xdf, 0xff, 0xff,
  0x10, 0x00, 0x00, 0x00, 0x09, 0x00, 0x00, 0x00, 0x1c, 0x00, 0x00, 0x00,
  0x38, 0x00, 0x00, 0x00, 0x04, 0x00, 0x00, 0x00, 0x08, 0x00, 0x00, 0x00,
  0x04, 0x00, 0x00, 0x00, 0x03, 0x00, 0x00, 0x00, 0x01, 0x00, 0x00, 0x00,
  0x18, 0x00, 0x00, 0x00, 0x73, 0x65, 0x71, 0x75, 0x65, 0x6e, 0x74, 0x69,
  0x61, 0x6c, 0x2f, 0x63, 0x6f, 0x6e, 0x76, 0x32, 0x64, 0x2f, 0x43, 0x6f,
  0x6e, 0x76, 0x32, 0x44, 0x00, 0x00, 0x00, 0x00, 0x30, 0xdf, 0xff, 0xff,
  0x3a, 0xe0, 0xff, 0xff, 0x04, 0x00, 0x00, 0x00, 0x00, 0x01, 0x00, 0x00,
  0x6f, 0xdc, 0x7c, 0xbc, 0x5e, 0xb4, 0x89, 0xbf, 0xc5, 0xac, 0x18, 0xbd,
  0xdd, 0xe2, 0xe6, 0x3e, 0x82, 0x93, 0xab, 0xbe, 0x24, 0x6e, 0xab, 0x3d,
  0x4f, 0x55, 0x00, 0xbe, 0xbc, 0x8a, 0x86, 0x3e, 0x51, 0x7e, 0xaa, 0x3c,
  0x5a, 0x0d, 0x69, 0xbf, 0x20, 0xd9, 0x17, 0xbe, 0xa2, 0x87, 0x8a, 0x3d,
  0xce, 0x8c, 0x86, 0xbe, 0xc9, 0x4d, 0x1d, 0x3e, 0x05, 0xcf, 0x69, 0x3e,
  0xaf, 0x9d, 0x38, 0xbe, 0x06, 0xc4, 0xcc, 0xbe, 0x27, 0xcc, 0x05, 0xbf,
  0x01, 0xdc, 0xd1, 0xbc, 0x40, 0xad, 0x00, 0x3f, 0x62, 0xa3, 0xc4, 0xbd,
  0x34, 0xf8, 0x6b, 0x3d, 0x4d, 0x2f, 0xb0, 0xb9, 0xfa, 0x82, 0x3d, 0x3e,
  0x4a, 0x03, 0x60, 0x3d, 0x3e, 0x02, 0x20, 0xbe, 0xa9, 0xd8, 0x1c, 0xbe,
  0x0a, 0x98, 0xd0, 0x3d, 0x52, 0x68, 0xc3, 0xbb, 0x8f, 0xa0, 0x2b, 0x3e,
  0x0a, 0x0e, 0x10, 0xbf, 0xf7, 0xcb, 0x86, 0xbe, 0x7a, 0xdd, 0xe4, 0x3c,
  0x95, 0x17, 0xe9, 0xbd, 0x88, 0x9d, 0xac, 0xbb, 0x05, 0xca, 0x84, 0x3e,
  0x92, 0x7d, 0xba, 0xbe, 0xc3, 0x3f, 0x2a, 0x3e, 0xdc, 0xad, 0xfa, 0xbd,
  0x8e, 0xd4, 0x64, 0x3e, 0x33, 0xa0, 0x63, 0xbd, 0x5c, 0x97, 0xbe, 0xbb,
  0x4e, 0x4b, 0x08, 0xbe, 0x0c, 0x24, 0x65, 0xbf, 0x3c, 0xfc, 0x9b, 0xbe,
  0x3f, 0xfa, 0xfc, 0x3d, 0xb9, 0x16, 0xd8, 0xbe, 0x7c, 0x9d, 0xd1, 0xbd,
  0xb9, 0xf8, 0xa3, 0x3e, 0x61, 0x3f, 0x6d, 0x3c, 0xc1, 0x32, 0xbc, 0x3c,
  0x8d, 0x75, 0xd5, 0x3e, 0x21, 0xce, 0x1d, 0xbd, 0x30, 0xf6, 0xd9, 0x3d,
  0xde, 0xe7, 0x10, 0x3d, 0x9b, 0xa8, 0x4a, 0x3e, 0xd2, 0x14, 0x73, 0x3c,
  0x27, 0x05, 0x92, 0x3e, 0xea, 0xb2, 0x9a, 0xbd, 0x54, 0xad, 0x4d, 0xbd,
  0x6c, 0x0d, 0x8a, 0xbe, 0x39, 0xd3, 0x72, 0x3e, 0xce, 0x1e, 0x38, 0x3e,
  0x3e, 0xc4, 0x0d, 0xbe, 0x12, 0xe1, 0xff, 0xff, 0x10, 0x00, 0x00, 0x00,
  0x08, 0x00, 0x00, 0x00, 0x14, 0x00, 0x00, 0x00, 0x30, 0x00, 0x00, 0x00,
  0x02, 0x00, 0x00, 0x00, 0x04, 0x00, 0x00, 0x00, 0x10, 0x00, 0x00, 0x00,
  0x19, 0x00, 0x00, 0x00, 0x73, 0x65, 0x71, 0x75, 0x65, 0x6e, 0x74, 0x69,
  0x61, 0x6c, 0x2f, 0x64, 0x65, 0x6e, 0x73, 0x65, 0x5f, 0x31, 0x2f, 0x4d,
  0x61, 0x74, 0x4d, 0x75, 0x6c, 0x00, 0x00, 0x00, 0x80, 0xe0, 0xff, 0xff,
  0x8a, 0xe1, 0xff, 0xff, 0x04, 0x00, 0x00, 0x00, 0x00, 0x1c, 0x00, 0x00,
  0x0e, 0xbb, 0x9d, 0xbd, 0x54, 0x07, 0x85, 0xbd, 0x68, 0x5b, 0xa0, 0xbe,
  0x11, 0xbf, 0x97, 0xbe, 0xf5, 0xc3, 0x0b, 0xbe, 0x24, 0x8d, 0x4a, 0x3c,
  0x9f, 0x70, 0xf9, 0x3c, 0xaf, 0xac, 0x5e, 0xbe, 0x88, 0xb9, 0x8c, 0xbd,
  0x16, 0xd5, 0x11, 0xbd, 0x63, 0x95, 0xc4, 0x3d, 0x31, 0xab, 0x0c, 0x3e,
  0x0c, 0x9f, 0x0c, 0x3e, 0xe9, 0x73, 0x1e, 0x3e, 0x40, 0xd3, 0x95, 0xbe,
  0xf6, 0x20, 0x26, 0xbe, 0x9a, 0x12, 0xb8, 0x3d, 0xcd, 0xa9, 0xce, 0x3d,
  0x10, 0xa6, 0xe2, 0xbd, 0xfa, 0xbb, 0x43, 0xbe, 0xfc, 0x92, 0x2a, 0x3e,
  0x94, 0x34, 0x50, 0x3d, 0xfa, 0x94, 0xf9, 0xbb, 0x0f, 0xa3, 0x79, 0xbe,
  0x77, 0x99, 0xbb, 0xbd, 0x35, 0x4e, 0x28, 0xbe, 0xe9, 0x31, 0x8c, 0x3c,
  0x69, 0x33, 0x16, 0xbd, 0xfb, 0xc4, 0x07, 0x3e, 0x0e, 0xa5, 0x0f, 0xbe,
  0x6a, 0x69, 0xf6, 0x3b, 0x79, 0xcc, 0x5d, 0xbd, 0x13, 0x93, 0xb3, 0xbd,
  0x9b, 0x07, 0x3e, 0xbd, 0x1a, 0xd5, 0x9d, 0xbe, 0x1a, 0x2e, 0xc3, 0xbe,
  0xa0, 0xd8, 0x9f, 0xbd, 0x1c, 0x36, 0x14, 0xbe, 0xd7, 0x92, 0xba, 0x3b,
  0xf9, 0x64, 0x60, 0xbd, 0xc6, 0x54, 0x2d, 0xbe, 0x98, 0x26, 0x91, 0x3c,
  0x4a, 0x9d, 0xc2, 0x3d, 0xd7, 0x3a, 0x39, 0x3c, 0xe3, 0x79, 0xce, 0x3a,
  0xcf, 0x8a, 0xc1, 0xbd, 0xf0, 0xe0, 0x70, 0x3d, 0xfc, 0xd9, 0x6a, 0xbe,
  0x2b, 0x9e, 0x37, 0x3b, 0x8a, 0xd8, 0x12, 0xbe, 0x24, 0xa0, 0xe3, 0xbe,
  0xa0, 0xf3, 0x16, 0x3e, 0x16, 0xbe, 0x25, 0xbd, 0xb8, 0x16, 0xa7, 0xbd,
  0xf0, 0x4c, 0xa2, 0xbc, 0x0c, 0x30, 0xfc, 0x3d, 0x81, 0x76, 0x4c, 0xbd,
  0x0d, 0xc4, 0xc4, 0xbd, 0x67, 0xac, 0x3b, 0xbe, 0x0c, 0x9b, 0x2a, 0x3d,
  0x83, 0x8a, 0x2b, 0xbd, 0x8e, 0x38, 0xe3, 0x3c, 0x2b, 0x87, 0x47, 0xbe,
  0x16, 0x51, 0x0d, 0xbe, 0xcf, 0xd7, 0x14, 0x3d, 0xd5, 0x0d, 0x1f, 0xbe,
  0xba, 0x6d, 0x54, 0xbe, 0xc0, 0x8d, 0x14, 0xbe, 0x56, 0x30, 0xdb, 0xbd,
  0x6a, 0x6a, 0x54, 0x3e, 0x3d, 0x77, 0xad, 0x3d, 0x1e, 0x6e, 0x33, 0xbe,
  0x8e, 0x9a, 0x4d, 0xbe, 0xef, 0x8e, 0x46, 0xbc, 0x25, 0x11, 0x9c, 0x3a,
  0x54, 0xad, 0xca, 0xbd, 0x5d, 0x70, 0x31, 0xbd, 0xca, 0x56, 0xf0, 0xbd,
  0x1b, 0xa3, 0xb8, 0xbd, 0xc5, 0x81, 0x82, 0x3d, 0x58, 0x64, 0x3c, 0xbe,
  0x0e, 0xa1, 0x44, 0xbe, 0x67, 0x90, 0x9a, 0xbd, 0x0b, 0x83, 0xe4, 0xbc,
  0xef, 0x31, 0x62, 0xbb, 0xc2, 0x34, 0x8a, 0x3d, 0xc2, 0xf3, 0x3a, 0xbd,
  0xa4, 0xe0, 0xc4, 0xbd, 0x87, 0xe5, 0x77, 0xbd, 0x81, 0xbb, 0x9a, 0x3c,
  0x82, 0x6a, 0x2a, 0x3d, 0xaf, 0xb8, 0x60, 0xbe, 0x83, 0x9f, 0x8d, 0x3d,
  0x57, 0x72, 0xac, 0x3c, 0xab, 0x67, 0x9f, 0xbe, 0xd0, 0xe6, 0x6e, 0xbe,
  0x77, 0x36, 0x26, 0xbe, 0xca, 0xcb, 0xa6, 0x3d, 0xe4, 0x1b, 0x0a, 0xbe,
  0xe3, 0xf6, 0x99, 0xbe, 0x7e, 0xdb, 0x07, 0xbe, 0xb4, 0xc3, 0xf7, 0x3d,
  0x38, 0x1d, 0x0e, 0xbd, 0x14, 0xf3, 0x62, 0xbe, 0x75, 0x1e, 0x08, 0xbe,
  0xb1, 0xf1, 0x8d, 0x3b, 0x3e, 0x55, 0x04, 0xbc, 0x0a, 0x01, 0xaf, 0xbe,
  0x93, 0x4c, 0x46, 0x3e, 0xcc, 0xf7, 0x28, 0xbd, 0x3b, 0x84, 0x4e, 0xbe,
  0x62, 0xee, 0x84, 0xbd, 0xb4, 0x92, 0x09, 0xbb, 0x87, 0x16, 0x2f, 0xbe,
  0x99, 0x16, 0x47, 0x3c, 0x5f, 0x5c, 0xcf, 0xbd, 0xf1, 0x2a, 0x1f, 0x3c,
  0x79, 0x27, 0x4a, 0x3e, 0xd6, 0xa4, 0xe6, 0xbc, 0xdc, 0xc3, 0x5a, 0xbe,
  0x38, 0xdb, 0x2b, 0xbd, 0xeb, 0xe1, 0x40, 0xbe, 0xe3, 0x32, 0x07, 0xbe,
  0x3e, 0x69, 0x07, 0xbe, 0x2e, 0x14, 0xf7, 0xbc, 0x42, 0x3d, 0xc4, 0x3d,
  0x77, 0xe3, 0x95, 0xbd, 0x98, 0xd9, 0x62, 0xbe, 0x3b, 0x6e, 0xe7, 0x3d,
  0xd0, 0xd1, 0xb5, 0xbd, 0x65, 0x17, 0x58, 0xbe, 0x2d, 0x6d, 0x59, 0xbd,
  0xb7, 0x55, 0x0d, 0xbe, 0x4c, 0xe9, 0x06, 0xbe, 0x2b, 0xf1, 0x09, 0x3d,
  0x73, 0xcf, 0x23, 0xbe, 0xd1, 0x53, 0x29, 0xbe, 0x99, 0x2f, 0xf9, 0xbd,
  0xfd, 0x35, 0x42, 0xbe, 0xce, 0x1f, 0xa4, 0xbd, 0xe0, 0xa9, 0x2a, 0xbe,
  0x99, 0x37, 0x9c, 0xbd, 0xaa, 0x9e, 0x20, 0xbc, 0x07, 0xbe, 0x93, 0xbe,
  0xbd, 0x80, 0xae, 0x3d, 0x6c, 0x21, 0x39, 0x3c, 0x1b, 0x99, 0x9b, 0xbd,
  0xc6, 0x2c, 0xcb, 0xbd, 0x6b, 0x61, 0x06, 0x3c, 0x03, 0x8a, 0x2b, 0xbe,
  0x0a, 0x6d, 0x84, 0xbe, 0x91, 0x84, 0xd2, 0xbd, 0x6e, 0x8d, 0x96, 0x3d,
  0x6a, 0xef, 0x4f, 0xbd, 0x8d, 0x8a, 0x92, 0xbb, 0xd7, 0x31, 0x5f, 0xbd,
  0x0f, 0x16, 0x2a, 0xbd, 0x86, 0x97, 0x7f, 0xbd, 0xbe, 0xaf, 0xce, 0xbd,
  0x8f, 0x4c, 0x0e, 0xbe, 0x41, 0xde, 0x98, 0x3d, 0x24, 0xd8, 0x1c, 0xbe,
  0x6e, 0xde, 0x37, 0xbe, 0x48, 0xda, 0x30, 0xbe, 0x22, 0xa7, 0x3e, 0x3e,
  0xff, 0xad, 0xec, 0xbd, 0xb7, 0x12, 0x48, 0xbe, 0x6f, 0x7d, 0x08, 0x3e,
  0x17, 0x4a, 0x03, 0xbe, 0xc4, 0x2d, 0x22, 0xbc, 0x06, 0x50, 0x3d, 0xbe,
  0xf3, 0x21, 0xbf, 0xbc, 0x80, 0x27, 0x0f, 0x3e, 0x6d, 0x45, 0x87, 0xbd,
  0x29, 0xdf, 0x9c, 0xbe, 0x9a, 0xcc, 0x81, 0x3d, 0x00, 0x08, 0x32, 0xbe,
  0x9c, 0x0f, 0xa7, 0x3c, 0x60, 0x30, 0x79, 0x3d, 0x98, 0x5b, 0x98, 0x3d,
  0xeb, 0xe8, 0x38, 0x3c, 0xa2, 0xb0, 0x13, 0x3e, 0xd7, 0x1a, 0x7e, 0xbe,
  0x9d, 0x41, 0x21, 0x3e, 0x22, 0xf1, 0xc4, 0xbd, 0xde, 0x2d, 0x40, 0xbd,
  0x03, 0x45, 0xf2, 0xbd, 0x0e, 0x0d, 0x84, 0xbe, 0x9d, 0x72, 0x2d, 0x3e,
  0x58, 0x6e, 0x50, 0x3d, 0x2b, 0x48, 0xdb, 0x3c, 0x52, 0xdf, 0x32, 0xbe,
  0xac, 0x13, 0x4e, 0xbe, 0xe2, 0x98, 0xfb, 0xbd, 0xa8, 0x00, 0x60, 0xbd,
  0x72, 0xa7, 0xe6, 0xbd, 0x45, 0xe0, 0x34, 0xbd, 0x1f, 0x15, 0xaa, 0xbd,
  0xf9, 0xb5, 0xbd, 0xbc, 0xd1, 0xf5, 0x8f, 0x3d, 0x40, 0x09, 0x04, 0xbe,
  0x9a, 0x79, 0x01, 0xbd, 0x0f, 0x20, 0x66, 0xbe, 0x96, 0x50, 0xc7, 0xbd,
  0xc7, 0x52, 0x4f, 0x3c, 0x7a, 0xc5, 0xa2, 0x3d, 0xe3, 0x90, 0x97, 0xbe,
  0xda, 0x93, 0x85, 0xbe, 0xea, 0x51, 0x84, 0xbe, 0x7f, 0xbb, 0xca, 0x3d,
  0x0c, 0x43, 0x44, 0x3d, 0x40, 0x4c, 0xbf, 0xbe, 0xd8, 0xdb, 0xf8, 0xbc,
  0xe3, 0x93, 0x4e, 0xbe, 0x89, 0x58, 0x14, 0xbd, 0x25, 0x99, 0x69, 0x3d,
  0xc1, 0x2a, 0xe7, 0xbc, 0x84, 0x6e, 0x68, 0xbe, 0x0f, 0xd1, 0xde, 0x3d,
  0x37, 0xa1, 0x12, 0xbe, 0xd1, 0xa4, 0x83, 0xbc, 0x98, 0xb2, 0xbd, 0x3c,
  0xea, 0x2b, 0xda, 0xbe, 0x08, 0xde, 0x24, 0xbe, 0x11, 0x09, 0xa3, 0xbc,
  0x78, 0x50, 0x91, 0xbf, 0xfe, 0x48, 0xc6, 0xbd, 0xd3, 0xb9, 0x8c, 0xbe,
  0x5a, 0x74, 0xec, 0x3e, 0xe7, 0x52, 0xea, 0x3e, 0xb4, 0xff, 0x93, 0xbe,
  0x78, 0x49, 0xa0, 0x3d, 0x92, 0x75, 0x88, 0xbe, 0x17, 0x77, 0xd1, 0xbe,
  0x02, 0x1c, 0x23, 0x3f, 0x17, 0xb2, 0xab, 0xbc, 0x5d, 0x4c, 0x41, 0x3e,
  0x92, 0xb0, 0xfb, 0x3d, 0x93, 0x0b, 0x2a, 0x3d, 0x12, 0xec, 0x31, 0xbe,
  0x89, 0xb1, 0x4c, 0x3c, 0xef, 0xc3, 0x69, 0xbf, 0xff, 0x6f, 0x46, 0xbe,
  0xd1, 0x21, 0x36, 0xbe, 0x21, 0x6b, 0xf8, 0xbb, 0x3a, 0x71, 0x62, 0xbe,
  0x87, 0xa0, 0x01, 0xbf, 0x21, 0xc9, 0xd9, 0x3e, 0x72, 0xa4, 0xb7, 0xbe,
  0x38, 0x6b, 0x2a, 0x3d, 0x6d, 0x1a, 0xf7, 0x3e, 0xc1, 0xdd, 0x43, 0x3d,
  0xa3, 0x01, 0x51, 0x3e, 0x08, 0xcd, 0xcb, 0x3d, 0x54, 0x23, 0xab, 0x3d,
  0x90, 0x9b, 0x82, 0xbe, 0x10, 0xa3, 0x99, 0xbd, 0x18, 0x6e, 0x80, 0xbf,
  0x77, 0xf8, 0x53, 0xbd, 0x4f, 0xd7, 0xbb, 0xbd, 0xd0, 0xc1, 0x88, 0x3d,
  0x2a, 0x33, 0xb8, 0xbe, 0x0d, 0x72, 0xcf, 0xbe, 0xb6, 0x2c, 0x14, 0x3f,
  0xad, 0x2e, 0xde, 0xbe, 0x4d, 0x71, 0x8f, 0xbe, 0x9e, 0x2b, 0xeb, 0x3e,
  0x0b, 0x47, 0x64, 0x3c, 0xae, 0x22, 0xd0, 0xbd, 0xd4, 0x0a, 0x9f, 0x3d,
  0xc2, 0xd0, 0x7a, 0x3d, 0xe2, 0x88, 0x8e, 0xbb, 0xc9, 0x06, 0x01, 0xbe,
  0x54, 0xc5, 0x50, 0xbf, 0x53, 0x5a, 0x02, 0xbe, 0xa0, 0x9a, 0x9a, 0xbd,
  0xbb, 0xf2, 0xa5, 0x3e, 0x37, 0xea, 0xe2, 0x3e, 0x4f, 0x3e, 0xb4, 0xbe,
  0x0e, 0x82, 0x17, 0x3f, 0xed, 0x4e, 0x78, 0xbe, 0x15, 0x00, 0x09, 0xbe,
  0x49, 0x48, 0x35, 0x3e, 0xc4, 0xba, 0xb4, 0x3d, 0xb2, 0xee, 0x5e, 0x3e,
  0x17, 0xde, 0x0a, 0x3d, 0x9c, 0x46, 0x5f, 0x3c, 0xf5, 0xd9, 0x20, 0x3e,
  0xa4, 0xb3, 0x1c, 0xbe, 0x82, 0x2b, 0xea, 0xbe, 0x2f, 0x92, 0x78, 0xbd,
  0x90, 0x10, 0xe6, 0xbd, 0x76, 0xe0, 0x74, 0x3e, 0x5f, 0xea, 0x0c, 0xbe,
  0xe8, 0xeb, 0x89, 0xbe, 0xba, 0xcb, 0xed, 0x3e, 0x46, 0x7e, 0xc4, 0xbe,
  0xcf, 0x15, 0x5d, 0xbe, 0xee, 0xbb, 0x80, 0x3e, 0x3b, 0x8c, 0xd5, 0x3d,
  0xc2, 0xe3, 0x3c, 0xbe, 0x55, 0x2a, 0xa9, 0x3d, 0x64, 0x5e, 0xc7, 0x3c,
  0x17, 0xbf, 0xf6, 0x3c, 0x61, 0x85, 0x66, 0xbe, 0x30, 0x6b, 0x41, 0xbf,
  0x10, 0x4b, 0x5a, 0xbe, 0xdd, 0xc2, 0x8c, 0xbd, 0x94, 0xd3, 0x54, 0x3e,
  0x16, 0x35, 0x35, 0xbf, 0xbe, 0xf4, 0x22, 0xbf, 0xbd, 0xe7, 0xbb, 0x3e,
  0xc6, 0x41, 0xbc, 0xbe, 0x11, 0xc2, 0xdf, 0xbe, 0x05, 0x14, 0xb1, 0x3e,
  0x58, 0x43, 0xad, 0x3d, 0xe8, 0x13, 0x1c, 0xbe, 0xe3, 0xc8, 0x02, 0x3e,
  0x8c, 0x9b, 0xe9, 0xbc, 0x08, 0x41, 0x15, 0xbb, 0xcd, 0xd9, 0x1d, 0xbe,
  0xc5, 0xd6, 0x31, 0x3e, 0xc9, 0x7b, 0x80, 0xbe, 0xd8, 0xca, 0x8e, 0x3d,
  0xb9, 0xa5, 0x43, 0x3d, 0x00, 0x8d, 0xd0, 0x3e, 0x3b, 0x49, 0xb8, 0xbd,
  0x12, 0x13, 0xe8, 0x3d, 0x22, 0x08, 0xe6, 0xbe, 0x88, 0xd7, 0x55, 0xbd,
  0xec, 0x13, 0x02, 0x3f, 0x81, 0x31, 0x48, 0x3d, 0xc6, 0x3f, 0x11, 0xbe,
  0x39, 0x21, 0x1f, 0x3e, 0x88, 0x6b, 0x4c, 0xbe, 0x62, 0x25, 0x31, 0xbe,
  0xe0, 0x14, 0xa7, 0xbf, 0x3c, 0x2f, 0x14, 0xbe, 0xc7, 0x71, 0x49, 0xbe,
  0x77, 0x2e, 0xa0, 0xbe, 0x07, 0x5e, 0xaf, 0xbd, 0x28, 0x4b, 0xab, 0x3e,
  0xc2, 0xb0, 0x25, 0xbe, 0x6e, 0x78, 0x31, 0x3d, 0xab, 0x8f, 0xc3, 0xbe,
  0xef, 0x97, 0x6f, 0xbe, 0x14, 0x96, 0x0c, 0x3d, 0x75, 0x59, 0x1b, 0xbd,
  0x26, 0xf2, 0x34, 0x3d, 0x89, 0x57, 0xa6, 0xbe, 0xba, 0xfa, 0x48, 0xbe,
  0x73, 0xb0, 0xa1, 0xbe, 0x0f, 0x7f, 0x43, 0xbe, 0xd0, 0x33, 0x36, 0x3e,
  0x8d, 0x94, 0x3b, 0xbf, 0xac, 0x38, 0xcf, 0xbe, 0x7a, 0x04, 0x02, 0xbe,
  0x2a, 0x78, 0x11, 0xbe, 0xb6, 0x82, 0x88, 0xbe, 0xdf, 0x5a, 0x2d, 0xbd,
  0x27, 0x0f, 0x29, 0xbe, 0x32, 0xa9, 0x87, 0xbe, 0xc5, 0x0b, 0x03, 0x3e,
  0x7e, 0x9f, 0x46, 0xbd, 0xb1, 0x36, 0x32, 0x3e, 0x11, 0x7d, 0x11, 0xbf,
  0x82, 0x7b, 0xc2, 0xbe, 0x30, 0x70, 0x0e, 0xbd, 0x23, 0xb0, 0x89, 0xbe,
  0xa5, 0xa5, 0xd2, 0xbd, 0x49, 0xe5, 0xe3, 0xbe, 0xc4, 0xfc, 0xb5, 0xbe,
  0x13, 0xcb, 0x8a, 0xbc, 0x3f, 0x70, 0xd9, 0xbd, 0xf9, 0x3a, 0x8d, 0xbe,
  0x53, 0x43, 0xa1, 0xbd, 0xae, 0x2e, 0xc4, 0xbd, 0x20, 0x92, 0x7e, 0x3c,
  0xca, 0x2d, 0x9b, 0x3d, 0x61, 0x74, 0x45, 0x3b, 0x87, 0xdc, 0x80, 0x3d,
  0xa2, 0xb2, 0x15, 0xbf, 0x7e, 0xd9, 0xc5, 0xbe, 0xef, 0x9b, 0x45, 0xbd,
  0x91, 0xf6, 0xef, 0xbe, 0x23, 0x1d, 0x61, 0x3d, 0xca, 0xff, 0x67, 0xbf,
  0x68, 0x5a, 0xfb, 0xbe, 0xe8, 0x7d, 0x45, 0x3e, 0xc4, 0xd5, 0xaa, 0x3e,
  0x43, 0xaf, 0xdb, 0x3d, 0x58, 0x0f, 0x11, 0xbe, 0xfc, 0xf0, 0xbb, 0xbd,
  0x05, 0x52, 0x2b, 0xbf, 0xc6, 0x39, 0x05, 0xbd, 0x2f, 0x22, 0x91, 0x3c,
  0xb0, 0x07, 0x59, 0xbe, 0x95, 0x5d, 0x0b, 0xbf, 0x90, 0xed, 0x26, 0xbf,
  0x6e, 0x38, 0xfa, 0xbe, 0x45, 0xeb, 0x8d, 0xbe, 0xef, 0x3b, 0x00, 0x3e,
  0xdf, 0xa0, 0xf5, 0x3c, 0x11, 0x2b, 0x37, 0x3c, 0x1c, 0xde, 0x6c, 0x3e,
  0xfc, 0x53, 0x3b, 0x3f, 0xc9, 0x6f, 0xe7, 0x3d, 0x16, 0xf8, 0x64, 0xbd,
  0xe5, 0x9f, 0x9d, 0x3e, 0x3d, 0x9a, 0x0d, 0xbd, 0x63, 0x04, 0x12, 0x3e,
  0x50, 0x18, 0xe0, 0x3c, 0xfb, 0x04, 0x66, 0xbe, 0x41, 0xf0, 0x90, 0xbe,
  0xa1, 0xd0, 0xcc, 0xbe, 0x4a, 0xc2, 0x1f, 0x3e, 0x74, 0xa6, 0x90, 0xbe,
  0x9f, 0x99, 0x21, 0xbe, 0x75, 0x9c, 0x0b, 0xbd, 0x2b, 0x9d, 0xbb, 0x3d,
  0xd8, 0xe3, 0xe3, 0x3e, 0x6f, 0xf2, 0xf8, 0x3e, 0x09, 0x79, 0xc4, 0x3d,
  0x0f, 0x1a, 0x8d, 0x3e, 0x95, 0x81, 0xe7, 0xbd, 0x5b, 0x85, 0x5c, 0xbd,
  0x88, 0x47, 0x57, 0xbd, 0x58, 0xda, 0x0f, 0xbd, 0x6e, 0x0b, 0x19, 0xbe,
  0x9a, 0xb2, 0x0e, 0xbd, 0x7a, 0x6c, 0x26, 0xbb, 0x25, 0x66, 0xf7, 0x3d,
  0x4f, 0x73, 0x0d, 0xbe, 0xeb, 0x21, 0x5d, 0x3e, 0xf3, 0x47, 0x0b, 0x3e,
  0x48, 0xb0, 0x01, 0xbc, 0xbd, 0x4f, 0x88, 0xbe, 0x69, 0x2f, 0x8b, 0x3e,
  0x7f, 0xb5, 0x66, 0x3e, 0x5b, 0x5e, 0xbb, 0x3d, 0x0e, 0xbb, 0xa7, 0xbb,
  0x18, 0x35, 0xdf, 0xbc, 0x57, 0x33, 0xf1, 0xbd, 0xd5, 0x25, 0xa4, 0x3c,
  0x11, 0xc2, 0x48, 0x3d, 0x3b, 0x58, 0xa2, 0xbd, 0x52, 0xfa, 0x32, 0x3e,
  0x14, 0x75, 0xbe, 0x3d, 0xde, 0x2b, 0xab, 0x3c, 0xdc, 0xc2, 0xee, 0x3d,
  0x71, 0xb4, 0xbb, 0xbd, 0x70, 0xbf, 0x94, 0x3d, 0x20, 0xf0, 0x0e, 0xbe,
  0x4a, 0xcb, 0xbc, 0x3d, 0xf8, 0xf6, 0x1e, 0xbe, 0x79, 0x1e, 0xbf, 0xbd,
  0x53, 0x12, 0xc2, 0xbd, 0x4c, 0xa8, 0x03, 0xbe, 0xc1, 0x53, 0x4c, 0xbd,
  0x26, 0x78, 0xb2, 0x3d, 0xf2, 0xf2, 0x40, 0x3e, 0xa2, 0x79, 0x00, 0x3d,
  0xb7, 0x5d, 0x2e, 0xbe, 0xf1, 0x0d, 0xed, 0xbd, 0x2b, 0x24, 0xfc, 0x3d,
  0x36, 0x95, 0x17, 0xbd, 0x65, 0x93, 0x12, 0xbe, 0xbd, 0xe0, 0x54, 0xbd,
  0x97, 0x54, 0xa0, 0x3d, 0x3b, 0xbf, 0xcc, 0x3d, 0xd7, 0x8a, 0x3d, 0x3d,
  0x88, 0xc8, 0x27, 0x3e, 0xf8, 0x42, 0x0e, 0xbe, 0x05, 0x35, 0x09, 0x3d,
  0xca, 0x62, 0x59, 0xbe, 0x06, 0x25, 0xe6, 0xbd, 0x6b, 0xcd, 0x8c, 0xbd,
  0x7c, 0xb3, 0x73, 0xbd, 0xdc, 0x79, 0x92, 0xbe, 0x43, 0xf5, 0x95, 0xbd,
  0x05, 0xcf, 0xd9, 0xbd, 0x47, 0x72, 0x98, 0x3d, 0x8b, 0x94, 0x0c, 0xbd,
  0xab, 0x48, 0xf7, 0x3c, 0x5a, 0xa1, 0xa6, 0x3d, 0x9e, 0xb8, 0x43, 0xbe,
  0x1f, 0x59, 0x92, 0x3b, 0x86, 0xd1, 0x90, 0xbd, 0x86, 0xc0, 0xec, 0xbd,
  0xb5, 0x6f, 0xae, 0xbd, 0x2c, 0x6e, 0xac, 0xbd, 0x1f, 0x77, 0xef, 0xbd,
  0xb6, 0xc3, 0xc0, 0xbb, 0xf0, 0x5e, 0xdb, 0x3d, 0x86, 0x30, 0x23, 0xbe,
  0xec, 0xae, 0x79, 0x3d, 0xfa, 0x87, 0x37, 0xbe, 0xe9, 0xa0, 0xac, 0x3d,
  0x53, 0xeb, 0x0e, 0xbd, 0x69, 0x1f, 0x89, 0xbc, 0x82, 0x44, 0xd5, 0x3d,
  0x34, 0x34, 0x2f, 0xbe, 0x56, 0x77, 0xfc, 0xbd, 0x75, 0x98, 0xa4, 0x3d,
  0xad, 0x2b, 0xa0, 0x3c, 0x34, 0x20, 0xfd, 0x3c, 0xec, 0x0d, 0x44, 0xbe,
  0x07, 0x11, 0x39, 0x3c, 0x75, 0x84, 0x1d, 0xbe, 0xe7, 0x1e, 0x0a, 0xbc,
  0x64, 0xdf, 0x9c, 0xbe, 0x55, 0x4d, 0xeb, 0xbd, 0x31, 0xa6, 0x0f, 0xbe,
  0x26, 0x81, 0x00, 0xbe, 0x86, 0xd0, 0x89, 0xbe, 0x3f, 0x23, 0xa0, 0x3d,
  0xfe, 0x17, 0x63, 0xbc, 0x18, 0x1a, 0x12, 0x3e, 0xde, 0x65, 0x98, 0xbd,
  0xe3, 0xa9, 0x46, 0x3e, 0xb3, 0x5e, 0x74, 0xbe, 0xb2, 0x70, 0x13, 0xbe,
  0x92, 0x79, 0x94, 0xbd, 0xd6, 0x31, 0xf7, 0x3d, 0x7c, 0xdd, 0xfa, 0x3d,
  0x20, 0xbc, 0x14, 0xbe, 0x51, 0x94, 0x89, 0xbe, 0x40, 0xbf, 0x1b, 0x3d,
  0x7a, 0xd2, 0x3c, 0xbe, 0x03, 0x73, 0xb1, 0xbd, 0x86, 0x8f, 0xed, 0xbd,
  0x8d, 0xc2, 0x9c, 0xbd, 0x66, 0xe3, 0xec, 0xbd, 0xce, 0x23, 0x20, 0x3e,
  0x4e, 0x0a, 0x71, 0xbe, 0x3a, 0xb6, 0x63, 0xbd, 0x46, 0xdc, 0x7d, 0xbe,
  0xcf, 0x1e, 0x12, 0x3e, 0xac, 0xc2, 0x8b, 0x3c, 0xca, 0xc7, 0x1a, 0xbe,
  0xdc, 0xce, 0xb4, 0x3d, 0xd8, 0x04, 0x78, 0x3e, 0xff, 0x4e, 0xb8, 0xbd,
  0xdd, 0x54, 0x5b, 0x3d, 0x64, 0xfb, 0xb2, 0xbe, 0x8b, 0x97, 0x73, 0x3c,
  0x06, 0xdb, 0xe9, 0x3d, 0x3f, 0xe7, 0xc8, 0xbe, 0x8f, 0xa8, 0x47, 0x3e,
  0xc4, 0xa5, 0x50, 0xbe, 0x93, 0x1a, 0xc8, 0xbd, 0x36, 0x10, 0x22, 0xbd,
  0xaf, 0xa9, 0x63, 0xbd, 0xb5, 0xc5, 0xaf, 0x3d, 0x5c, 0x1e, 0xb6, 0x3c,
  0x6a, 0x55, 0x6c, 0xbe, 0x30, 0x06, 0xd5, 0x3d, 0x87, 0x57, 0x84, 0xbe,
  0x08, 0xa0, 0x9a, 0xbe, 0xd7, 0x49, 0x84, 0x3b, 0xcb, 0x0e, 0x4e, 0x3e,
  0xad, 0xf9, 0xae, 0xbd, 0xb0, 0x5e, 0x93, 0xbc, 0x0c, 0xe6, 0xcc, 0x3c,
  0x93, 0xba, 0x6a, 0xbd, 0x57, 0xef, 0xec, 0xbd, 0x0b, 0x0d, 0x19, 0xbc,
  0x7b, 0x4f, 0x00, 0xbe, 0xe5, 0xe2, 0xc4, 0xbb, 0xa0, 0xe8, 0x07, 0xbd,
  0x20, 0x0c, 0x1b, 0x3e, 0xcd, 0x8e, 0x01, 0xbf, 0x17, 0x06, 0x0d, 0xbd,
  0xe6, 0x84, 0x92, 0x3e, 0xe8, 0x40, 0x60, 0xbe, 0xc3, 0x87, 0xa1, 0xbe,
  0x7c, 0x8b, 0xde, 0xbd, 0x0a, 0xd5, 0x19, 0x3e, 0xae, 0x43, 0xbd, 0xbe,
  0x1d, 0x36, 0xaf, 0x3e, 0x7b, 0x76, 0x47, 0xbd, 0x6a, 0xe4, 0x39, 0xbe,
  0xcf, 0x19, 0x28, 0xbd, 0xe4, 0x67, 0xf6, 0x3d, 0x5c, 0xa8, 0xa6, 0xbd,
  0xae, 0xb7, 0x10, 0x3d, 0xbb, 0x82, 0x4b, 0xbe, 0x5d, 0xb0, 0x80, 0xbf,
  0x08, 0xc0, 0x1e, 0x3e, 0xdc, 0x6c, 0xf4, 0x3d, 0x21, 0x5d, 0xbb, 0xbe,
  0x21, 0x74, 0x92, 0xbe, 0x0a, 0x66, 0xd5, 0x3d, 0x75, 0x5c, 0x96, 0xbb,
  0xad, 0xb1, 0xee, 0xbe, 0x3a, 0x20, 0x94, 0x3e, 0xa9, 0x2a, 0xab, 0x3d,
  0xcc, 0xd9, 0xde, 0x3a, 0x17, 0x5b, 0x6a, 0xbd, 0x71, 0x36, 0xd9, 0x3e,
  0x7d, 0x29, 0xd7, 0x3d, 0xec, 0x80, 0x96, 0xbb, 0xd8, 0x25, 0x00, 0xbe,
  0x31, 0x82, 0x10, 0xbf, 0x9a, 0xba, 0xff, 0xbd, 0xa7, 0xfa, 0xea, 0xbd,
  0x01, 0x4d, 0xa6, 0x3d, 0x65, 0xb9, 0x52, 0xbe, 0x7b, 0x78, 0xd1, 0x3d,
  0xc6, 0xbe, 0x49, 0xbd, 0x37, 0x27, 0x81, 0xbe, 0x33, 0xae, 0x06, 0x3e,
  0x6e, 0xea, 0x08, 0x3e, 0x94, 0x5f, 0x19, 0x3d, 0x87, 0xb4, 0x1e, 0x3d,
  0xed, 0x28, 0x49, 0x3e, 0x95, 0x43, 0xb1, 0x3e, 0x23, 0xd0, 0x10, 0xbe,
  0x5f, 0x74, 0xc3, 0xba, 0xcf, 0xb6, 0x8e, 0xbe, 0xce, 0xa8, 0xbb, 0x3d,
  0x37, 0x60, 0x0b, 0xbe, 0x23, 0x99, 0x2a, 0x3d, 0x91, 0x75, 0x57, 0xbe,
  0x15, 0xe9, 0xd2, 0x3d, 0x7e, 0x51, 0x28, 0x3e, 0xb3, 0x5f, 0x7b, 0xbe,
  0x48, 0xf1, 0x35, 0x3d, 0xd7, 0xf2, 0xae, 0xbd, 0x9e, 0x4d, 0x6c, 0xbe,
  0x9a, 0xfb, 0xa9, 0xbb, 0x2c, 0xd1, 0x1e, 0x3d, 0x55, 0xed, 0xef, 0x3d,
  0xec, 0xdb, 0xaf, 0xbd, 0x78, 0x8c, 0x69, 0xbc, 0x81, 0xca, 0x8c, 0xbe,
  0xb4, 0xe8, 0x3a, 0x3e, 0x9f, 0xf2, 0x70, 0xbe, 0xc3, 0xc9, 0xac, 0x3d,
  0xd5, 0x6c, 0x94, 0xbe, 0x70, 0x51, 0x49, 0x3e, 0xae, 0xdd, 0x3c, 0x3d,
  0x77, 0x99, 0x26, 0xbe, 0x2c, 0xaa, 0xc5, 0x3c, 0xed, 0xc2, 0x4a, 0x3e,
  0xec, 0x88, 0x7d, 0xbe, 0x8e, 0xd2, 0xdc, 0x3d, 0x12, 0xd9, 0xfc, 0xbd,
  0xc1, 0x7a, 0x1e, 0x3e, 0xda, 0xb7, 0xdc, 0xbd, 0x5c, 0x34, 0x89, 0xbd,
  0x98, 0x59, 0x75, 0xbe, 0x0c, 0x48, 0x4b, 0x3e, 0x5e, 0x0d, 0xcb, 0xbd,
  0x3b, 0xc0, 0x25, 0x3e, 0x5d, 0xc3, 0x91, 0xbe, 0x59, 0xe6, 0x23, 0x3d,
  0xd0, 0xe3, 0x87, 0xbe, 0x5f, 0x8f, 0xd5, 0xbd, 0x11, 0xf5, 0x20, 0xbe,
  0x14, 0x64, 0xb3, 0x3d, 0xd3, 0x0e, 0xdb, 0xbd, 0x89, 0x10, 0x0e, 0x3e,
  0x81, 0xe3, 0xd1, 0xbd, 0xd7, 0xba, 0x0a, 0x3e, 0x1e, 0x64, 0x0e, 0xbe,
  0xdb, 0xb6, 0x48, 0x3e, 0x9d, 0x21, 0x20, 0x3d, 0xdd, 0x00, 0xc2, 0x3d,
  0xbc, 0xb2, 0x12, 0xbc, 0x7b, 0x5e, 0x3b, 0x3e, 0x1c, 0x3e, 0x51, 0xbe,
  0xa0, 0x08, 0xbb, 0xbd, 0xb1, 0xb6, 0xdf, 0xbd, 0xf1, 0x5f, 0x01, 0xbe,
  0x8c, 0xfd, 0xd8, 0xbd, 0x8f, 0x50, 0x7b, 0x3d, 0x20, 0xd9, 0xf1, 0xbd,
  0xfc, 0x0a, 0x0c, 0xbe, 0x49, 0x44, 0x1b, 0x3e, 0x11, 0x15, 0x89, 0x3c,
  0xbd, 0xe9, 0x67, 0xbe, 0x04, 0x4a, 0xea, 0x3d, 0xb4, 0xa5, 0x72, 0x3d,
  0xae, 0xf8, 0xe1, 0x3c, 0x3f, 0xbe, 0x22, 0x3d, 0x68, 0x81, 0x68, 0xbe,
  0x6c, 0x7a, 0x50, 0xbe, 0xe6, 0x5f, 0xd6, 0x3d, 0x54, 0x6f, 0xf7, 0xbd,
  0xed, 0x4d, 0x6b, 0xbd, 0x02, 0x73, 0xdc, 0x3c, 0xad, 0x62, 0x61, 0x3e,
  0xac, 0xad, 0x14, 0xbe, 0xbe, 0x3b, 0x97, 0xbd, 0x37, 0x4c, 0xdf, 0x3d,
  0x69, 0xdd, 0x4d, 0xbd, 0x43, 0x35, 0xce, 0xbb, 0x48, 0x02, 0xda, 0x3e,
  0x70, 0x13, 0x23, 0x3d, 0xbb, 0x7a, 0x23, 0x3e, 0x0d, 0x13, 0x1a, 0x3d,
  0x2d, 0x02, 0xc9, 0xbd, 0x95, 0xcd, 0x79, 0xbe, 0x31, 0xde, 0xd0, 0xbd,
  0x35, 0xae, 0xef, 0xbd, 0x8e, 0x1a, 0xcd, 0xbd, 0x02, 0x97, 0x58, 0x3d,
  0xed, 0xd1, 0xd3, 0xbd, 0xc8, 0x13, 0x83, 0xbd, 0xf3, 0xb5, 0x1e, 0xbe,
  0x4c, 0x1c, 0xd1, 0x3c, 0x88, 0x28, 0xf8, 0xbb, 0xc0, 0x59, 0x00, 0xbe,
  0x2f, 0xab, 0x9d, 0x3e, 0x72, 0x86, 0xce, 0x3d, 0xe0, 0xc4, 0xac, 0x3b,
  0xb6, 0x60, 0x12, 0x3d, 0x2f, 0x56, 0xb8, 0xbe, 0x21, 0xee, 0x2f, 0xbe,
  0x04, 0x05, 0xc3, 0xbe, 0x08, 0xf7, 0x9e, 0xbe, 0x4f, 0x17, 0xbb, 0xbd,
  0x5e, 0x42, 0xff, 0xbb, 0x6e, 0x9a, 0xaf, 0xbc, 0x48, 0x99, 0x67, 0xbe,
  0xff, 0xc5, 0x50, 0xbe, 0x4b, 0x1c, 0xfc, 0x3d, 0xd5, 0x46, 0x35, 0xbe,
  0x49, 0x2d, 0xa1, 0xbe, 0x5e, 0x44, 0xa0, 0x3e, 0xd3, 0xfb, 0xa6, 0x3d,
  0xdf, 0x7f, 0x7b, 0xbd, 0x70, 0x82, 0xb5, 0x3d, 0x47, 0xf1, 0xc6, 0xbe,
  0x88, 0x7e, 0x28, 0xbe, 0xc4, 0x8b, 0x34, 0xbe, 0x30, 0x18, 0x40, 0xbd,
  0x54, 0xc2, 0x72, 0x3c, 0xda, 0x38, 0xd9, 0xbc, 0xbb, 0x70, 0xa0, 0x3d,
  0xe7, 0xd3, 0x9a, 0xbc, 0xde, 0x6f, 0x51, 0xbe, 0xc3, 0xa3, 0x41, 0x3e,
  0xe6, 0xde, 0x80, 0xbe, 0xbb, 0x8c, 0x8a, 0xbd, 0x01, 0x35, 0x13, 0x3e,
  0xb1, 0x4f, 0xd9, 0x3d, 0x0c, 0x2c, 0x57, 0xbe, 0x74, 0x50, 0x65, 0x3d,
  0xec, 0xb1, 0xc1, 0xbe, 0x34, 0x3a, 0x89, 0x3d, 0x7b, 0x18, 0x83, 0xbe,
  0x8e, 0x86, 0x5a, 0xbe, 0x82, 0x2d, 0xa5, 0xbd, 0x94, 0xab, 0xa1, 0xbc,
  0xba, 0x07, 0x97, 0x3d, 0x95, 0x91, 0x6f, 0xbd, 0xb3, 0x79, 0xa3, 0xbe,
  0xde, 0x68, 0x09, 0xbe, 0x3d, 0xd6, 0x7b, 0xbe, 0x21, 0xa1, 0x89, 0xbd,
  0x8f, 0xca, 0xeb, 0x3e, 0x5a, 0x90, 0x03, 0x3e, 0x7e, 0x0a, 0x7d, 0x3d,
  0x9d, 0xb9, 0x08, 0x3e, 0x5b, 0x34, 0xfa, 0xbe, 0x19, 0xb3, 0xcb, 0xbd,
  0x3e, 0x19, 0x8b, 0xbe, 0xd6, 0xfb, 0x82, 0xbc, 0x7c, 0x43, 0x75, 0xbd,
  0xce, 0x45, 0xe7, 0x3d, 0x77, 0xc1, 0x4d, 0xbd, 0x06, 0x43, 0xda, 0x3d,
  0x5f, 0x07, 0x3a, 0xbe, 0xcf, 0x74, 0xc6, 0xbd, 0x77, 0x9c, 0x22, 0xbe,
  0xc7, 0xe3, 0x17, 0xbd, 0xae, 0x7e, 0x08, 0x3f, 0xff, 0xf7, 0xc5, 0xbd,
  0xae, 0xa0, 0x61, 0xbe, 0xd4, 0x9d, 0xd7, 0x3d, 0xde, 0x5b, 0x16, 0xbf,
  0x3c, 0x80, 0x02, 0xbe, 0xab, 0x51, 0x44, 0x3e, 0x7f, 0xd6, 0x3d, 0x40,
  0x62, 0x38, 0x57, 0xbd, 0x94, 0x93, 0x81, 0xbd, 0xdd, 0x56, 0x10, 0x3d,
  0xc7, 0x54, 0xa3, 0x3e, 0x46, 0x14, 0x84, 0x3d, 0xe0, 0x4d, 0x83, 0xbe,
  0x6c, 0x8e, 0xc0, 0x3d, 0xaf, 0x01, 0x1f, 0xbc, 0x29, 0x15, 0xd7, 0x3c,
  0xad, 0x5b, 0x88, 0x3d, 0x07, 0x26, 0x80, 0xbd, 0x18, 0xb7, 0x9a, 0xbe,
  0xe1, 0x47, 0x0e, 0x3d, 0x40, 0x9d, 0xd6, 0xbd, 0xa1, 0x9b, 0xf6, 0xbd,
  0x4c, 0x6a, 0x04, 0x40, 0x51, 0x45, 0x98, 0x3d, 0xd1, 0x4c, 0x47, 0xbe,
  0xd9, 0xfe, 0x3c, 0x3e, 0xeb, 0xb9, 0xa0, 0x3f, 0x8d, 0x39, 0x58, 0x3d,
  0x31, 0x05, 0x8b, 0xbe, 0x6d, 0x16, 0xfb, 0x3c, 0x54, 0xcf, 0xdc, 0x3b,
  0x11, 0xc0, 0x69, 0xbe, 0x4f, 0x84, 0x7b, 0x3c, 0xae, 0xa1, 0xc4, 0x3d,
  0x89, 0x29, 0x40, 0xbe, 0x12, 0x41, 0xa7, 0xbd, 0xed, 0xd7, 0xb2, 0x3d,
  0xde, 0xd4, 0xa4, 0xbe, 0x19, 0x18, 0xe9, 0x3f, 0x90, 0x5d, 0xb9, 0x3e,
  0xe8, 0xf5, 0x38, 0xbe, 0x78, 0x8c, 0x20, 0x3e, 0x73, 0x7d, 0x89, 0x3f,
  0x3b, 0xd3, 0xc7, 0x3e, 0x73, 0xd0, 0x9f, 0xbe, 0x84, 0xf4, 0x59, 0x3d,
  0x9a, 0x89, 0x97, 0x3e, 0x07, 0xbe, 0x8f, 0xbd, 0xa8, 0xa9, 0x9c, 0xbc,
  0xf8, 0x14, 0x0b, 0x3d, 0x15, 0x15, 0x00, 0xbe, 0xf4, 0xb1, 0x70, 0x3d,
  0x62, 0x0a, 0x08, 0x3e, 0x3a, 0x91, 0x1f, 0xbe, 0x34, 0xf9, 0xbd, 0x3f,
  0x0d, 0x18, 0x91, 0x3e, 0xd5, 0x54, 0x28, 0x3d, 0x31, 0x8d, 0x80, 0xbe,
  0x04, 0xb4, 0x33, 0x3f, 0x46, 0xe3, 0x6f, 0x3d, 0xfd, 0x5e, 0xca, 0xbe,
  0x3c, 0xd5, 0x53, 0x3e, 0x79, 0x0c, 0xac, 0x3e, 0x15, 0x67, 0xab, 0xbd,
  0xa1, 0x42, 0xd8, 0xbc, 0x36, 0x28, 0x5f, 0x3e, 0x19, 0x94, 0xee, 0x3d,
  0xe1, 0x41, 0xab, 0x3d, 0xe9, 0x06, 0x31, 0x3e, 0x88, 0xd2, 0x45, 0xbc,
  0xfa, 0xa9, 0x20, 0x40, 0x2d, 0x44, 0x82, 0x3d, 0x5e, 0xe1, 0x43, 0x3d,
  0x01, 0x8e, 0x30, 0xbe, 0x18, 0xed, 0x92, 0xbd, 0xd0, 0x26, 0xba, 0x3b,
  0xfb, 0x1c, 0xae, 0xbe, 0xdc, 0x3b, 0x5f, 0x3d, 0xbc, 0x94, 0x3b, 0x3e,
  0x50, 0x20, 0x84, 0xbe, 0x0b, 0x0e, 0xe6, 0xbc, 0x25, 0x8d, 0x43, 0xbd,
  0x58, 0xa2, 0xe5, 0x3d, 0xfd, 0xd9, 0xca, 0x3d, 0x9b, 0x01, 0xa6, 0xbd,
  0x21, 0x7e, 0xdb, 0x3d, 0x88, 0x77, 0xca, 0x3f, 0xab, 0x9a, 0x1f, 0x3c,
  0xd1, 0x19, 0x58, 0xbe, 0x69, 0x78, 0x96, 0x3e, 0xcf, 0x1c, 0xe3, 0x3e,
  0xdf, 0x54, 0xff, 0xbc, 0x52, 0xa2, 0x07, 0xbf, 0x93, 0x68, 0xdf, 0x3d,
  0x96, 0x22, 0xc3, 0x3d, 0xe6, 0x08, 0x8d, 0xbd, 0xe9, 0x13, 0x81, 0x3d,
  0xfc, 0xde, 0x8b, 0xbd, 0x34, 0xf8, 0x8e, 0xbd, 0xac, 0xc8, 0x3d, 0xbd,
  0x3f, 0xdb, 0x93, 0xbd, 0xf2, 0x2c, 0x71, 0x3d, 0x86, 0x01, 0x86, 0xbd,
  0xd3, 0xc4, 0xe4, 0x3c, 0x71, 0xca, 0x5f, 0xbd, 0xb8, 0xc3, 0x83, 0x3e,
  0xa2, 0x78, 0x85, 0x3e, 0xdb, 0xad, 0x39, 0xbd, 0x6c, 0xda, 0x12, 0xbe,
  0x86, 0x41, 0xa3, 0x3d, 0x8a, 0x6b, 0x84, 0x3d, 0xe8, 0x41, 0x43, 0xbd,
  0x0b, 0x9f, 0x9c, 0xbc, 0x4b, 0x8c, 0x32, 0x3e, 0xf0, 0x5e, 0x22, 0xbe,
  0x04, 0xe3, 0xaa, 0xbd, 0x29, 0xd3, 0xbd, 0xbc, 0xcc, 0xf4, 0xbe, 0xbe,
  0xb2, 0x92, 0x63, 0x3d, 0xf7, 0xaf, 0x60, 0x3d, 0x3e, 0x3c, 0x05, 0x3e,
  0x4f, 0x92, 0xf3, 0xbc, 0xb7, 0x0d, 0xd0, 0xbe, 0x64, 0x47, 0xb4, 0x3c,
  0x31, 0x11, 0x6c, 0x3e, 0x0b, 0x4d, 0xe2, 0xbd, 0xa0, 0xc8, 0xd2, 0xbc,
  0xb0, 0xae, 0xb9, 0xbd, 0x43, 0xd0, 0x15, 0xbe, 0xdf, 0xbc, 0x83, 0x3d,
  0x36, 0x73, 0xd4, 0xbd, 0x06, 0x2c, 0x56, 0x3d, 0x19, 0x2b, 0x53, 0x3e,
  0x17, 0x9e, 0x72, 0x3c, 0x6d, 0x5f, 0x66, 0xbe, 0x4f, 0x70, 0x38, 0xbc,
  0x78, 0x4c, 0xc9, 0xbc, 0x69, 0x79, 0x6f, 0x3d, 0x6e, 0xaf, 0x28, 0xbe,
  0x1a, 0x21, 0xff, 0x3c, 0xf2, 0xcc, 0xf2, 0x3d, 0xbe, 0xd5, 0xdb, 0x3c,
  0x32, 0x14, 0xfb, 0x3d, 0x30, 0xba, 0x4c, 0x3e, 0xed, 0xf7, 0x8c, 0xbd,
  0xc4, 0x34, 0x33, 0xbe, 0x2e, 0xfd, 0x22, 0xbd, 0xc3, 0x9d, 0xc7, 0x3d,
  0x9a, 0x3e, 0x11, 0x3d, 0xa1, 0xec, 0x26, 0x3d, 0xb5, 0xf3, 0xab, 0x3d,
  0xfc, 0x1e, 0x8a, 0xbe, 0xbc, 0x0f, 0xd3, 0xbd, 0x07, 0x3a, 0xbc, 0xbd,
  0x18, 0x77, 0x56, 0x3c, 0x53, 0x01, 0x86, 0xbd, 0x51, 0x3d, 0xbe, 0xbe,
  0xfe, 0x21, 0x9d, 0x3d, 0x27, 0x9b, 0x90, 0xbe, 0x90, 0x3a, 0xed, 0xbc,
  0xc6, 0xc9, 0xd2, 0xbc, 0xdb, 0xbd, 0xc9, 0x3d, 0xff, 0x1f, 0x59, 0x3e,
  0xb5, 0x01, 0x05, 0xbd, 0xd5, 0xa1, 0x57, 0xbe, 0x38, 0x40, 0xf3, 0x3d,
  0x4d, 0x60, 0x28, 0x3e, 0x0c, 0xed, 0x8b, 0xbe, 0x71, 0x26, 0x5f, 0xbe,
  0xd4, 0xba, 0x15, 0x3e, 0xca, 0xb2, 0x4b, 0xbe, 0x4d, 0x65, 0x4b, 0xbe,
  0xc5, 0x23, 0x30, 0xbe, 0xa7, 0x93, 0xe1, 0xbc, 0x7b, 0xa2, 0x93, 0xbe,
  0xd1, 0x0a, 0xec, 0x3d, 0x24, 0x1b, 0x94, 0xbd, 0x5f, 0xae, 0x3f, 0xbe,
  0x73, 0xdf, 0xb8, 0x3d, 0x71, 0x6d, 0xef, 0x3d, 0xd0, 0xa9, 0xea, 0xbe,
  0xa8, 0x8e, 0x05, 0x3e, 0x94, 0xa7, 0x03, 0xbe, 0xb7, 0x2f, 0x0a, 0xbe,
  0xed, 0x88, 0x16, 0xbe, 0x74, 0x27, 0x14, 0x3e, 0xef, 0x5e, 0x08, 0x3e,
  0x45, 0x69, 0x2c, 0xbe, 0x9b, 0xce, 0xb4, 0xbc, 0x7e, 0xd7, 0x37, 0xbd,
  0xa7, 0xea, 0x0d, 0xbe, 0x78, 0x81, 0x78, 0x3c, 0x2d, 0x64, 0x53, 0xbc,
  0x45, 0xd8, 0x40, 0xbe, 0xd0, 0xe6, 0x08, 0xbd, 0x40, 0xa2, 0xb4, 0xbd,
  0x24, 0x45, 0x1a, 0xbe, 0x8e, 0xdb, 0x48, 0x3e, 0xa8, 0x3a, 0x3e, 0xbe,
  0x16, 0x47, 0x9e, 0xbc, 0x25, 0x3c, 0x90, 0xbe, 0x93, 0x2a, 0xc4, 0x3d,
  0xfe, 0xd9, 0x70, 0xbe, 0xdf, 0x93, 0x04, 0xbe, 0xbb, 0x02, 0x10, 0xbc,
  0x83, 0xe5, 0x23, 0xbe, 0x3d, 0xdd, 0xf3, 0xbc, 0xf9, 0x2a, 0xf0, 0xbd,
  0x5a, 0x38, 0x3f, 0xbd, 0xcd, 0x8a, 0x19, 0x3c, 0x0b, 0x31, 0x58, 0xbd,
  0x67, 0x67, 0xfa, 0xbd, 0x26, 0x5b, 0x80, 0xbe, 0xab, 0x38, 0x27, 0x3e,
  0x5e, 0x84, 0x18, 0x3d, 0x12, 0x77, 0x32, 0x3b, 0x58, 0x25, 0x6d, 0xbc,
  0xaa, 0x2b, 0x67, 0xbd, 0xc8, 0x10, 0x95, 0x3d, 0x4a, 0x31, 0x46, 0xbd,
  0x4e, 0xf2, 0xce, 0xbd, 0x6b, 0x1f, 0xc8, 0xbd, 0xa0, 0x19, 0x38, 0xbd,
  0xbb, 0xa7, 0xa6, 0x3d, 0xa9, 0x9b, 0xa3, 0xbd, 0xa5, 0x2e, 0x28, 0xbd,
  0xbd, 0x37, 0xbd, 0xbd, 0x8b, 0x0c, 0x74, 0xbc, 0x7c, 0x67, 0x95, 0xbc,
  0xaa, 0x3a, 0x8d, 0xbd, 0xfa, 0x8f, 0x0e, 0x3e, 0x9f, 0x28, 0xa0, 0xbd,
  0x34, 0x4e, 0x16, 0xbd, 0x34, 0xad, 0xed, 0xbd, 0x36, 0xa3, 0xf0, 0x3d,
  0x82, 0xdc, 0xcb, 0xbd, 0x16, 0x5c, 0xb3, 0xbc, 0x62, 0x19, 0x1a, 0x3d,
  0xd3, 0xe9, 0x02, 0xbe, 0x28, 0x9b, 0x4b, 0xbe, 0xa5, 0x9f, 0xcc, 0xbd,
  0x45, 0x0a, 0x51, 0xbd, 0xf1, 0x06, 0xa4, 0x3d, 0xbd, 0xbc, 0x3b, 0xbd,
  0x41, 0xeb, 0x8f, 0xbe, 0xaa, 0x5d, 0x0f, 0xbe, 0x88, 0xff, 0xb7, 0xbd,
  0xe8, 0x98, 0x41, 0x3c, 0xd1, 0x56, 0xad, 0xbd, 0x05, 0xf2, 0x6a, 0x3d,
  0x79, 0x5d, 0xff, 0x3c, 0x94, 0xbe, 0xd0, 0x3d, 0xf6, 0xf4, 0x8f, 0xbe,
  0x24, 0x80, 0xa8, 0x3c, 0x33, 0x89, 0x7e, 0xbd, 0xcf, 0xba, 0xff, 0x3c,
  0x13, 0xb5, 0x30, 0xbe, 0x0e, 0x98, 0x6f, 0x3c, 0x3f, 0xd6, 0x8e, 0xbd,
  0x7a, 0x3e, 0xa7, 0xbd, 0x33, 0x48, 0x63, 0xbe, 0x38, 0x28, 0xcb, 0x3d,
  0x80, 0xb9, 0xb9, 0xbd, 0x85, 0x80, 0x54, 0xbe, 0xd4, 0x98, 0x74, 0xbd,
  0x0f, 0x73, 0x0d, 0xbe, 0xe0, 0x50, 0xb0, 0x3d, 0x28, 0x7b, 0xfb, 0xbd,
  0x19, 0x1e, 0x66, 0x3c, 0x16, 0x62, 0x48, 0x3d, 0xa5, 0xce, 0xe6, 0xbd,
  0x93, 0x05, 0xa2, 0xbd, 0x63, 0x41, 0xb8, 0x3b, 0x43, 0xb5, 0x11, 0xbe,
  0x29, 0x55, 0x91, 0x3d, 0x14, 0x3d, 0xad, 0x39, 0x34, 0xcf, 0x78, 0x3c,
  0x58, 0x25, 0x1c, 0xbe, 0x2f, 0x68, 0x53, 0xbe, 0x37, 0xa2, 0x81, 0xbc,
  0x7f, 0x57, 0x26, 0xbd, 0xe8, 0x4f, 0xbc, 0x3c, 0x50, 0xe3, 0x80, 0xbd,
  0x96, 0x37, 0x3a, 0xbe, 0x40, 0x85, 0x80, 0xbe, 0x7a, 0xe5, 0x80, 0x3c,
  0x03, 0xcb, 0x7e, 0x3d, 0x4e, 0x5d, 0x66, 0xbe, 0xef, 0x77, 0x02, 0xbe,
  0x25, 0xb2, 0xee, 0x3d, 0x9b, 0x13, 0x86, 0xbd, 0x20, 0x54, 0x84, 0xbe,
  0xe1, 0x3e, 0xdd, 0xbc, 0x6e, 0xb8, 0x4b, 0xbd, 0x86, 0x3a, 0xd2, 0x3b,
  0xe2, 0xd8, 0xd1, 0xbc, 0x14, 0x0e, 0x9b, 0xbe, 0x18, 0x49, 0x69, 0xbe,
  0xca, 0x69, 0x57, 0xbe, 0xcb, 0x5c, 0xa4, 0xbc, 0x5a, 0xab, 0x3d, 0xbd,
  0xda, 0x26, 0xb2, 0x3d, 0x06, 0x3e, 0x9a, 0x3b, 0x82, 0x13, 0xaa, 0x3d,
  0xcf, 0x30, 0x67, 0xbe, 0xb6, 0x14, 0x3c, 0x3e, 0x06, 0xb1, 0x20, 0xbd,
  0x50, 0x8d, 0x5a, 0xbe, 0xca, 0xda, 0x8c, 0xbe, 0xbb, 0x14, 0x9d, 0xbb,
  0x3b, 0x0d, 0x2d, 0x3e, 0xc8, 0x82, 0x0f, 0xbe, 0x5e, 0xb1, 0xde, 0xbb,
  0x44, 0xa4, 0x50, 0x3d, 0xae, 0x4f, 0xe6, 0xbd, 0x68, 0xeb, 0x22, 0xbe,
  0xc0, 0xd3, 0xd6, 0xbb, 0xe0, 0x5f, 0x09, 0xbe, 0xe8, 0xd7, 0x92, 0xbd,
  0xa8, 0xea, 0x5b, 0xbe, 0x05, 0x50, 0x41, 0x3d, 0x6a, 0x32, 0x3b, 0xbe,
  0x90, 0x91, 0x9f, 0x3d, 0x10, 0x02, 0x71, 0xbe, 0x61, 0xe3, 0x03, 0xbe,
  0x47, 0x02, 0x2f, 0xbd, 0x05, 0xf2, 0xd7, 0x3d, 0xab, 0xb7, 0x0d, 0xbe,
  0xf1, 0x78, 0xa3, 0xbe, 0x8c, 0x4d, 0x11, 0x3c, 0xa9, 0x29, 0x4b, 0xbc,
  0xb5, 0x14, 0x85, 0x3c, 0xbd, 0xa7, 0x3f, 0xbe, 0x7a, 0xaa, 0x47, 0xbe,
  0xe9, 0x31, 0x0b, 0x3e, 0x5e, 0xb6, 0x8d, 0xbd, 0x4b, 0xac, 0xd3, 0xbd,
  0x9b, 0x08, 0x26, 0x3e, 0xca, 0xbc, 0x6d, 0xbd, 0x9d, 0x18, 0xe1, 0xbe,
  0xa8, 0xc5, 0x81, 0xbd, 0x77, 0xba, 0xd4, 0xbd, 0xe9, 0x5b, 0xa4, 0xbf,
  0xf6, 0x7e, 0x0d, 0xbe, 0x71, 0x1f, 0xf3, 0xbe, 0x48, 0x57, 0x9f, 0x3e,
  0xa1, 0xd6, 0x98, 0x3e, 0x0d, 0x6c, 0x07, 0xbe, 0x11, 0x71, 0x3f, 0x3e,
  0xf8, 0xfb, 0xdf, 0xbe, 0x6f, 0x4a, 0xc3, 0xbe, 0xd2, 0xe9, 0xdf, 0x3e,
  0xab, 0xaa, 0xdb, 0x3d, 0xf8, 0x47, 0x04, 0x3e, 0xdb, 0xfa, 0xbd, 0x3c,
  0xa6, 0x75, 0x3a, 0x3c, 0x42, 0xac, 0xef, 0xbd, 0x9f, 0xaa, 0xcb, 0x3d,
  0xe4, 0x7a, 0x02, 0xbf, 0x70, 0x25, 0x6a, 0xbd, 0xc4, 0xb5, 0xb5, 0xbe,
  0x50, 0x93, 0x28, 0x3e, 0x2b, 0xad, 0xa0, 0xbe, 0x6f, 0x51, 0xb7, 0xbe,
  0x23, 0x62, 0xef, 0x3e, 0xd9, 0xc4, 0x85, 0xbe, 0xf6, 0x4b, 0xa6, 0xbc,
  0x8e, 0xfe, 0xb3, 0x3e, 0xca, 0xdd, 0x27, 0x3d, 0xb2, 0x64, 0x3e, 0xbd,
  0xe4, 0x50, 0x6c, 0x3d, 0x48, 0x5a, 0x92, 0x3b, 0x34, 0x36, 0x55, 0x3c,
  0x01, 0xf4, 0xae, 0x3c, 0xa2, 0xe9, 0x10, 0xbe, 0xc2, 0x56, 0x2b, 0xbe,
  0x23, 0x10, 0x9d, 0xbe, 0x5f, 0xd5, 0x1c, 0x3e, 0xee, 0x4b, 0xc5, 0xbe,
  0x86, 0x36, 0x2d, 0xbe, 0xc0, 0x6e, 0x0c, 0x3f, 0x51, 0x26, 0xad, 0xbe,
  0x8b, 0xe5, 0x0c, 0xbe, 0x23, 0xfd, 0x04, 0x3f, 0x93, 0xb9, 0xc9, 0x3d,
  0x42, 0x59, 0x29, 0xbd, 0xaf, 0xbe, 0x64, 0x3d, 0x2f, 0x79, 0x2a, 0x3d,
  0x18, 0xdf, 0x58, 0x3e, 0x85, 0x07, 0x13, 0xbe, 0xc1, 0x0f, 0x16, 0xbe,
  0x69, 0x66, 0x8f, 0x3c, 0xf1, 0xcf, 0x40, 0xbe, 0x27, 0xb2, 0x75, 0x3e,
  0xcf, 0xe4, 0x68, 0x3c, 0x81, 0xfb, 0xd2, 0xbd, 0xfd, 0xda, 0xe7, 0x3e,
  0x86, 0x0c, 0x6e, 0xbe, 0x7e, 0x9a, 0xf9, 0xbd, 0xa5, 0xbe, 0xd1, 0xbc,
  0x12, 0xa6, 0x53, 0x3d, 0x1b, 0x5d, 0xbc, 0x3d, 0x4a, 0x22, 0x09, 0x3e,
  0xe7, 0x2c, 0xdf, 0x3c, 0xe1, 0x0f, 0xc1, 0x3e, 0xd6, 0x44, 0x7b, 0xbd,
  0x08, 0x15, 0xed, 0xbe, 0xc0, 0xd9, 0x09, 0xbe, 0x0a, 0xee, 0x94, 0xbe,
  0x10, 0x5f, 0xc0, 0x3e, 0x3a, 0x08, 0x52, 0xbf, 0xe4, 0xd5, 0xa4, 0xbe,
  0x61, 0xae, 0xc0, 0x3e, 0xda, 0x84, 0x83, 0xbe, 0x07, 0xd6, 0x57, 0xbe,
  0x7c, 0x5a, 0x58, 0x3e, 0xde, 0x1e, 0x29, 0x3d, 0x7c, 0x01, 0x4c, 0x3d,
  0x2c, 0xd6, 0xe3, 0x3d, 0xdd, 0x66, 0x1d, 0x3c, 0x2e, 0xea, 0x7d, 0x3e,
  0x23, 0x27, 0x48, 0x3d, 0xed, 0x4f, 0x6f, 0xbe, 0x59, 0x79, 0x5a, 0xbe,
  0x2b, 0x6f, 0x8a, 0xbe, 0xaf, 0xae, 0xcc, 0x3e, 0xaa, 0x5d, 0x0a, 0xbe,
  0x86, 0xe0, 0x04, 0xbf, 0x6e, 0xb5, 0xab, 0x3e, 0xb3, 0xbd, 0x72, 0xbe,
  0xc5, 0x7a, 0x90, 0xbe, 0xe3, 0x74, 0x46, 0x3d, 0xf1, 0x73, 0x81, 0x3c,
  0xf8, 0x27, 0x1c, 0x3e, 0x2f, 0x00, 0x31, 0x3e, 0xe4, 0x1c, 0x9e, 0xbd,
  0x24, 0xa9, 0x9a, 0x3d, 0xf7, 0x4a, 0x67, 0xbd, 0x6a, 0xc3, 0x59, 0x3e,
  0xa6, 0xf0, 0x89, 0xbe, 0x3a, 0xb8, 0xc0, 0xbd, 0x45, 0x2a, 0xbd, 0x3e,
  0xb9, 0xc3, 0xb0, 0x3e, 0xa7, 0xbb, 0x10, 0xbd, 0x28, 0x32, 0x87, 0x3e,
  0xb7, 0xcf, 0x5f, 0xbe, 0x14, 0x61, 0x02, 0xbd, 0xb7, 0x42, 0x73, 0x3e,
  0xce, 0x01, 0xa5, 0xbc, 0xae, 0xfa, 0xf8, 0xbc, 0x48, 0xb6, 0x8e, 0x3e,
  0xf2, 0x69, 0x41, 0xbd, 0x99, 0x8a, 0xb1, 0xbd, 0x78, 0x31, 0x11, 0xbf,
  0x3f, 0x67, 0xee, 0x3e, 0x9d, 0x1c, 0xb5, 0xbe, 0x78, 0x44, 0x84, 0xbe,
  0x8d, 0xef, 0x52, 0xbe, 0x25, 0x95, 0xa2, 0x3e, 0xb0, 0x6c, 0x16, 0xbd,
  0x27, 0x00, 0x09, 0xbe, 0xb4, 0x73, 0x43, 0xbe, 0x0b, 0x01, 0x56, 0xbe,
  0x21, 0x1c, 0x60, 0x3e, 0xe4, 0x5c, 0x3f, 0xbd, 0xa3, 0x18, 0x3b, 0xbe,
  0x2d, 0x05, 0x1c, 0xbf, 0x1d, 0xa3, 0x50, 0xbe, 0x1a, 0x11, 0x28, 0xbd,
  0xf5, 0x7a, 0xcc, 0x3d, 0xf2, 0x91, 0xa8, 0x3e, 0x23, 0xa2, 0x89, 0xbe,
  0xe7, 0xac, 0x76, 0xbe, 0x07, 0x21, 0x0d, 0x3f, 0xa9, 0x05, 0x01, 0x3e,
  0xcd, 0x21, 0xa4, 0xbc, 0xc3, 0x55, 0x15, 0x3d, 0x3b, 0xdf, 0x7b, 0x3c,
  0x9e, 0x25, 0xb1, 0xbd, 0x8a, 0xc9, 0x10, 0xbd, 0x95, 0xa3, 0x6e, 0xbd,
  0xf0, 0xe8, 0x24, 0xbe, 0xfb, 0x77, 0x15, 0xbf, 0x89, 0x2e, 0x42, 0xbe,
  0x92, 0x8c, 0x0d, 0x3e, 0xa7, 0x4f, 0x0d, 0xbe, 0xb5, 0xbd, 0xa2, 0x3e,
  0x44, 0x3c, 0x8f, 0xbe, 0x30, 0xf1, 0x8c, 0xbe, 0xcf, 0x62, 0x86, 0x3e,
  0x1e, 0xcf, 0xcd, 0x3e, 0x78, 0x88, 0xb9, 0xbe, 0xc5, 0x8f, 0x8e, 0x3d,
  0x65, 0xf7, 0xa5, 0xbc, 0xc6, 0x5d, 0x91, 0x3d, 0x1e, 0xbe, 0xe9, 0x3d,
  0x34, 0xa1, 0xbc, 0x3b, 0xb9, 0xbb, 0xbb, 0xbc, 0x44, 0x0b, 0x28, 0xbf,
  0x83, 0x7f, 0x60, 0xbe, 0x2c, 0x00, 0x1e, 0x3e, 0x28, 0x8c, 0x28, 0xbe,
  0x68, 0xb7, 0xd9, 0x3e, 0x8e, 0xd1, 0x11, 0xbf, 0x92, 0x75, 0xbd, 0xbe,
  0x46, 0xcc, 0x76, 0x3e, 0xab, 0x04, 0x81, 0x3e, 0x54, 0xff, 0x17, 0x3d,
  0xda, 0x54, 0x22, 0xbe, 0x5c, 0x51, 0x07, 0x3d, 0x62, 0x8e, 0x8e, 0xbe,
  0x26, 0x06, 0x40, 0x3e, 0x21, 0x5a, 0x03, 0x3c, 0xf6, 0x9c, 0x1e, 0xbe,
  0x3e, 0x64, 0x36, 0xbf, 0x4a, 0x23, 0x77, 0xbe, 0x47, 0x62, 0x5c, 0xbe,
  0xae, 0x55, 0x31, 0xbe, 0xe5, 0xcf, 0x10, 0x3f, 0x76, 0x93, 0x55, 0xbe,
  0xb8, 0x9c, 0xb6, 0xbe, 0xd5, 0x1e, 0x01, 0x3f, 0x6b, 0x1c, 0x43, 0x3f,
  0x27, 0xeb, 0x25, 0x3e, 0xda, 0x63, 0x1b, 0xbe, 0x52, 0xaa, 0x1a, 0x3d,
  0x86, 0x58, 0x15, 0xbe, 0x35, 0x65, 0x1d, 0x3c, 0x69, 0x3c, 0xcf, 0x3b,
  0x78, 0xcb, 0xe9, 0x3d, 0x16, 0x13, 0x09, 0xbe, 0x96, 0x83, 0xb0, 0xbe,
  0x51, 0x8e, 0xbd, 0x3c, 0x68, 0xa5, 0x9e, 0xbe, 0xd2, 0x67, 0xae, 0x3e,
  0x90, 0x26, 0xa9, 0x3d, 0xee, 0x74, 0x88, 0x3d, 0x11, 0x4a, 0x0f, 0xbe,
  0xa1, 0xd2, 0xbe, 0x3e, 0xe5, 0x6c, 0x5a, 0x3d, 0x5d, 0x58, 0x66, 0xba,
  0x25, 0x08, 0xb4, 0xbd, 0xe0, 0x9e, 0xae, 0x3c, 0x10, 0x97, 0x44, 0x3e,
  0x60, 0x03, 0x15, 0xbe, 0x55, 0xeb, 0x0a, 0x3e, 0x3b, 0xe8, 0x63, 0xbd,
  0x1b, 0x0e, 0x9c, 0xbd, 0xc5, 0x0b, 0x0b, 0x3e, 0x66, 0x55, 0x00, 0xbe,
  0x39, 0x0a, 0x6a, 0x3e, 0xe7, 0x32, 0xc8, 0x3d, 0xe1, 0xfe, 0x06, 0xbd,
  0xd5, 0xa0, 0x90, 0x3e, 0x2a, 0xdf, 0x57, 0x3d, 0x0d, 0x90, 0x03, 0x3e,
  0x9f, 0x68, 0xb1, 0x3d, 0x33, 0x3b, 0x9e, 0x3d, 0x12, 0xb1, 0x7a, 0x3d,
  0x1f, 0x3b, 0x6b, 0x3d, 0x64, 0x73, 0x4a, 0xbd, 0xb9, 0x87, 0x9d, 0xbd,
  0xf8, 0x3c, 0xd8, 0xbd, 0x91, 0x13, 0xc2, 0x3d, 0xe3, 0x54, 0x18, 0xbd,
  0xe7, 0x09, 0x51, 0xbe, 0x97, 0x94, 0x0d, 0x3e, 0x4a, 0x98, 0x3a, 0xbe,
  0xf7, 0x03, 0x9f, 0x3b, 0xdf, 0x79, 0x1f, 0x3e, 0xbe, 0xd9, 0x8d, 0xbd,
  0xd7, 0xa8, 0xea, 0x3c, 0xa6, 0x02, 0x78, 0xbd, 0x3e, 0xcf, 0x8e, 0xbd,
  0xe3, 0xa7, 0x96, 0x3d, 0x54, 0xfa, 0x4d, 0x3d, 0x0c, 0x4c, 0x08, 0xbe,
  0x80, 0xb5, 0xc9, 0x3d, 0xe9, 0xc2, 0x2b, 0xbe, 0x46, 0xaf, 0x63, 0xbe,
  0xa8, 0x78, 0xae, 0x3d, 0x3b, 0x80, 0xd3, 0x3b, 0x93, 0x42, 0x27, 0xbe,
  0x30, 0xda, 0x50, 0xbe, 0xb6, 0xa9, 0x4c, 0xbe, 0x0f, 0xe5, 0x07, 0x3d,
  0xe0, 0x43, 0x68, 0x3d, 0x0f, 0x67, 0x0c, 0xbe, 0xb8, 0x90, 0x2a, 0x3e,
  0xf0, 0x07, 0x3b, 0xbe, 0x6f, 0x4f, 0x64, 0xbd, 0x7b, 0xa3, 0xa8, 0x3d,
  0xa3, 0x44, 0x2f, 0xbe, 0xbf, 0x6c, 0xa4, 0xbb, 0x47, 0x9e, 0x6b, 0xbe,
  0xef, 0xcc, 0x00, 0xbe, 0xa4, 0xba, 0xec, 0xbd, 0xb2, 0xc1, 0x36, 0x3c,
  0xfc, 0x08, 0x44, 0x3e, 0x73, 0x70, 0x0a, 0x3d, 0x9c, 0xd8, 0x82, 0xbe,
  0x7a, 0xa9, 0x3c, 0xbe, 0x7f, 0x9b, 0x96, 0x3d, 0xf1, 0x00, 0xa6, 0x3a,
  0x08, 0xca, 0x7b, 0xbe, 0xb8, 0xc0, 0x0f, 0xbe, 0x7d, 0xe9, 0x58, 0xbe,
  0x8a, 0x14, 0x0a, 0x3e, 0x05, 0xa6, 0xfe, 0xbd, 0x17, 0xd6, 0xc7, 0x3d,
  0x6b, 0x99, 0x96, 0xbc, 0xae, 0x5c, 0x40, 0xbe, 0x07, 0xa9, 0x1e, 0xbe,
  0xdb, 0x11, 0x89, 0xbd, 0x1d, 0xfd, 0xff, 0x3b, 0x2d, 0x25, 0x83, 0xbe,
  0xbe, 0x1a, 0xf9, 0xbb, 0x57, 0x3a, 0x5a, 0xbc, 0x37, 0x77, 0x10, 0xbe,
  0x81, 0x5d, 0x22, 0x3e, 0x24, 0x77, 0x61, 0xbe, 0x70, 0xf9, 0x49, 0x3d,
  0x0c, 0x57, 0x95, 0x3d, 0x0a, 0xe0, 0x89, 0xbd, 0x38, 0xa4, 0x91, 0x3d,
  0xa4, 0x68, 0x5d, 0xbe, 0xba, 0x2e, 0xff, 0xbd, 0xfe, 0x12, 0x9b, 0xbe,
  0x02, 0x7c, 0x87, 0xbe, 0x56, 0x7f, 0x66, 0xbe, 0xc7, 0x16, 0x59, 0x3d,
  0xcc, 0xd1, 0x80, 0x3d, 0xec, 0x88, 0x15, 0xbd, 0x96, 0x56, 0x90, 0x3d,
  0xda, 0x7b, 0x6a, 0xbb, 0xc6, 0x2d, 0xe6, 0xbd, 0x67, 0xdb, 0x99, 0x3d,
  0x98, 0x5c, 0x35, 0xbe, 0x06, 0xdf, 0x72, 0x3d, 0xa6, 0x08, 0xc0, 0x3d,
  0x99, 0xf0, 0xa3, 0xbd, 0xc3, 0x17, 0xd7, 0x3d, 0x74, 0x89, 0x2e, 0xbd,
  0x31, 0x15, 0x70, 0xbc, 0x02, 0xf6, 0x78, 0x3e, 0x0b, 0x13, 0x39, 0xbe,
  0xe4, 0x9b, 0x32, 0x3e, 0x09, 0xd2, 0x41, 0xbe, 0xc7, 0x22, 0x13, 0x3b,
  0xa8, 0x84, 0x63, 0x3e, 0x81, 0x74, 0x0e, 0xbe, 0xb6, 0x31, 0x59, 0xbe,
  0xec, 0x80, 0x42, 0x3d, 0x6b, 0x3b, 0x36, 0x3d, 0x2a, 0xc3, 0x03, 0x3d,
  0x4f, 0x62, 0x55, 0x3d, 0xa9, 0x0a, 0x46, 0xbe, 0x02, 0x0d, 0xc8, 0x3d,
  0x6b, 0xc9, 0x88, 0xbe, 0x0b, 0x09, 0x0d, 0xbc, 0xa6, 0xec, 0x4a, 0xbe,
  0xdb, 0x67, 0xc8, 0x3d, 0xb2, 0xa7, 0xa7, 0xbd, 0x55, 0x2c, 0x95, 0xbd,
  0x6d, 0x33, 0x5f, 0xbe, 0x22, 0xb0, 0x4a, 0xbe, 0x2d, 0xec, 0xe5, 0xbd,
  0x9f, 0xae, 0x39, 0xbc, 0x80, 0x4e, 0x12, 0xbe, 0x87, 0x6f, 0xdc, 0x3d,
  0xf7, 0x7f, 0x53, 0xbe, 0xc9, 0x09, 0x8c, 0xbd, 0xc1, 0xfc, 0xc0, 0xbd,
  0xbc, 0x7e, 0xb7, 0x3c, 0xcc, 0x84, 0xa3, 0x3d, 0x0b, 0x72, 0xb6, 0x3d,
  0x9f, 0x4b, 0x3c, 0xbd, 0x2f, 0x71, 0x5f, 0xbc, 0x3f, 0x65, 0x1b, 0xbf,
  0x9c, 0xed, 0x1d, 0xbe, 0x31, 0xba, 0x9b, 0xbe, 0x93, 0xca, 0xd8, 0x3e,
  0x6c, 0xac, 0xde, 0x3e, 0x84, 0x83, 0x9d, 0xbe, 0xa2, 0x19, 0xca, 0x3d,
  0x30, 0xd4, 0x81, 0xbe, 0x9d, 0x69, 0x11, 0xbf, 0xbd, 0x8f, 0x05, 0x3f,
  0xc0, 0x30, 0x0f, 0xbb, 0x87, 0x21, 0x68, 0x3d, 0x83, 0xaa, 0xeb, 0xbc,
  0xdd, 0x2d, 0x8e, 0x3d, 0x6e, 0x5d, 0x79, 0xbe, 0x6d, 0x90, 0x3f, 0x3e,
  0x98, 0x5d, 0xb2, 0xbe, 0xca, 0x74, 0x61, 0x3d, 0x86, 0x99, 0x9e, 0xbe,
  0xd5, 0x69, 0x50, 0x3e, 0xc5, 0x58, 0xed, 0xbe, 0x7f, 0x4d, 0x9f, 0xbe,
  0xd8, 0x59, 0xef, 0x3e, 0x8c, 0x30, 0xcc, 0xbe, 0x2c, 0xc9, 0x21, 0xbe,
  0xc7, 0x67, 0x98, 0x3e, 0xd8, 0xc1, 0x4e, 0x3d, 0xdf, 0x91, 0xf9, 0xbd,
  0xc5, 0xec, 0x4b, 0xbd, 0xf7, 0x07, 0x08, 0x3e, 0xa6, 0xee, 0xa9, 0xbe,
  0x63, 0xa1, 0x99, 0x3d, 0xc8, 0x63, 0x21, 0xbf, 0xce, 0xb7, 0x2f, 0x3d,
  0x48, 0x1d, 0x45, 0xbe, 0x89, 0xe7, 0x87, 0x3e, 0x5a, 0xbc, 0x18, 0xbf,
  0x86, 0x48, 0xef, 0xbe, 0x01, 0xed, 0x1c, 0x3f, 0xd1, 0xf9, 0x74, 0xbe,
  0x68, 0x55, 0x95, 0xbe, 0xa3, 0xb8, 0xef, 0x3e, 0x82, 0x7d, 0x14, 0x3d,
  0xab, 0x9f, 0x02, 0x3c, 0xd5, 0xcb, 0xf1, 0x3c, 0x42, 0xaa, 0x09, 0x3d,
  0x59, 0x04, 0xd5, 0xbb, 0x13, 0xd1, 0xa3, 0xbc, 0x16, 0x2a, 0x13, 0xbf,
  0x44, 0xe4, 0xad, 0x3c, 0x33, 0x4c, 0xec, 0xbd, 0xc7, 0x45, 0x4e, 0x3e,
  0xc7, 0xf1, 0x21, 0xbe, 0x40, 0xf7, 0xe2, 0xbe, 0xf1, 0x00, 0x1f, 0x3f,
  0xd1, 0x7b, 0xf9, 0xbe, 0xab, 0x44, 0xa9, 0xbe, 0xd7, 0x36, 0x79, 0x3e,
  0xdb, 0x82, 0x06, 0x3d, 0xfd, 0xaf, 0xf5, 0xbc, 0xa9, 0xcc, 0x88, 0x3d,
  0x73, 0xa5, 0x4a, 0x3d, 0x8a, 0x40, 0x87, 0x3e, 0x03, 0x35, 0xd4, 0xbc,
  0x0c, 0xb3, 0xa5, 0xbe, 0x31, 0xed, 0x5f, 0x3d, 0x32, 0xbb, 0x0b, 0xbe,
  0xe8, 0x54, 0xff, 0x3d, 0x31, 0xd6, 0x59, 0xbf, 0xef, 0x53, 0x33, 0xbe,
  0x40, 0xd0, 0xeb, 0x3e, 0x40, 0xfe, 0xcc, 0xbe, 0x42, 0xfc, 0xc2, 0xbe,
  0x3e, 0x68, 0x63, 0x3e, 0xf9, 0xab, 0x10, 0x3c, 0xfc, 0x77, 0x82, 0xbd,
  0x2c, 0x9d, 0x95, 0x3d, 0x2c, 0x1b, 0x6d, 0x3d, 0x92, 0xe0, 0x29, 0x3e,
  0xee, 0xb7, 0xa7, 0xbd, 0x2b, 0x47, 0x0f, 0xbc, 0x45, 0x3b, 0x14, 0xbe,
  0xaa, 0xbe, 0x10, 0xbe, 0x3b, 0xbc, 0x2e, 0x3e, 0xb4, 0xa2, 0x00, 0xbf,
  0x35, 0x00, 0xdf, 0xbe, 0xdb, 0xb1, 0xc5, 0x3e, 0x92, 0x9f, 0xcc, 0xbe,
  0xe0, 0x68, 0xd6, 0xbe, 0x62, 0x0a, 0x88, 0x3e, 0xd2, 0x62, 0xd1, 0x3d,
  0xc1, 0xd6, 0x02, 0xbe, 0xef, 0x81, 0xfd, 0x3d, 0xee, 0xd9, 0xcd, 0x3b,
  0x0f, 0xd8, 0xc0, 0xbd, 0xa5, 0x17, 0x4b, 0xbd, 0x07, 0x47, 0x6c, 0x3e,
  0xbb, 0xfa, 0x95, 0xbe, 0x93, 0x98, 0x07, 0x3e, 0xc9, 0xc9, 0xfd, 0xbc,
  0x70, 0xe2, 0x9d, 0x3e, 0xc3, 0x82, 0xb8, 0xbd, 0xfb, 0x89, 0x40, 0x3b,
  0xc0, 0xcb, 0xd8, 0xbe, 0x71, 0x1c, 0x25, 0xbd, 0xcc, 0xec, 0x95, 0x3e,
  0x45, 0x9c, 0x6f, 0x3d, 0x65, 0xc7, 0xe7, 0xba, 0x01, 0x41, 0x3c, 0x3e,
  0x1a, 0x57, 0x3a, 0xbe, 0xac, 0x75, 0x4e, 0xbe, 0xf9, 0x61, 0x81, 0xbe,
  0x85, 0x8a, 0x0d, 0x40, 0x49, 0x02, 0x72, 0xbe, 0xcc, 0xde, 0x80, 0xbe,
  0x5f, 0x7e, 0xad, 0xbc, 0xfc, 0x84, 0xc2, 0x3e, 0x52, 0xcc, 0xdc, 0xbc,
  0x1f, 0x0c, 0x9f, 0xbe, 0x97, 0x99, 0x90, 0xbe, 0xb0, 0x53, 0x27, 0xbe,
  0xbf, 0x16, 0x86, 0x3e, 0x61, 0xc0, 0x1f, 0xbe, 0x39, 0xef, 0x50, 0xbd,
  0xc7, 0xc3, 0x9b, 0x3d, 0x4a, 0xad, 0x5e, 0xbe, 0x56, 0x89, 0x8a, 0x3a,
  0x08, 0xb5, 0x13, 0xbe, 0x02, 0x84, 0x1a, 0x40, 0xab, 0xfd, 0xcf, 0xbe,
  0x40, 0x58, 0x69, 0xbd, 0x2a, 0x8c, 0x56, 0x3e, 0xe7, 0x9e, 0x1b, 0x40,
  0x43, 0xc3, 0x0a, 0x3e, 0x6f, 0x30, 0x81, 0x3e, 0x9b, 0x3e, 0xe3, 0xbd,
  0x4e, 0xc4, 0x45, 0xbe, 0xf4, 0x34, 0x52, 0x3e, 0x47, 0x0f, 0x78, 0xbe,
  0xe5, 0x39, 0xd9, 0xbd, 0x03, 0x1e, 0x25, 0xbe, 0xd2, 0x56, 0xfc, 0xbc,
  0xa2, 0x7a, 0x9a, 0xbd, 0x15, 0xf7, 0x0e, 0xbe, 0x17, 0x26, 0x07, 0x40,
  0x5d, 0xab, 0xbd, 0xbe, 0xa1, 0x33, 0x82, 0xbd, 0xfb, 0x19, 0x8f, 0x3e,
  0xed, 0x13, 0x2e, 0x40, 0x61, 0x59, 0x47, 0xbe, 0x79, 0xec, 0x95, 0x3e,
  0x32, 0x76, 0xb3, 0x3d, 0xc6, 0x9a, 0x98, 0xbd, 0xaa, 0x64, 0xdc, 0x3e,
  0x40, 0xdf, 0x80, 0xbe, 0xb5, 0x23, 0x33, 0x3e, 0x24, 0xde, 0xa3, 0x3e,
  0x00, 0x1a, 0xae, 0xbc, 0x1f, 0x58, 0x62, 0xbe, 0xf2, 0xec, 0x96, 0xbe,
  0x04, 0xe5, 0x1d, 0x40, 0x75, 0xc5, 0xe4, 0x3c, 0x1b, 0x7d, 0xa0, 0xbe,
  0x0e, 0x0a, 0xc6, 0x3e, 0x32, 0x27, 0x2c, 0x40, 0x45, 0xd8, 0x2a, 0xbe,
  0x6d, 0xe7, 0x3c, 0x3e, 0xc8, 0xd3, 0x15, 0xbd, 0x41, 0x3b, 0x02, 0xbe,
  0xa0, 0xd0, 0x08, 0x3f, 0xf1, 0xe0, 0x8e, 0xbe, 0xac, 0xc5, 0x4b, 0x3e,
  0xa7, 0x70, 0xfb, 0xbd, 0x26, 0x90, 0x85, 0x3d, 0x99, 0xdc, 0x50, 0xbe,
  0x2b, 0xcb, 0xc4, 0xbd, 0x9f, 0xf1, 0x27, 0x40, 0x97, 0x59, 0xf6, 0xbe,
  0xc4, 0x57, 0x95, 0xbd, 0xec, 0x32, 0x24, 0x3e, 0xbb, 0x53, 0x0e, 0x40,
  0xeb, 0xa5, 0x19, 0x3e, 0x6b, 0x2c, 0x97, 0x3d, 0xe4, 0xb2, 0x4c, 0xbe,
  0xa6, 0x5b, 0x20, 0x3c, 0x69, 0x4f, 0xf5, 0x3e, 0x55, 0x81, 0x9d, 0xbe,
  0x68, 0x4a, 0x49, 0xbe, 0x64, 0x2d, 0x45, 0xbd, 0xe2, 0x64, 0x29, 0xbe,
  0xcd, 0x6e, 0x3d, 0xbe, 0x0b, 0xa8, 0x35, 0xbe, 0x39, 0xc0, 0x16, 0x40,
  0xd1, 0x64, 0xae, 0xbe, 0xb7, 0xcf, 0x73, 0xbe, 0x97, 0x4f, 0x8f, 0x3e,
  0x7a, 0x3f, 0xcc, 0x3f, 0xd9, 0xc5, 0x61, 0xbd, 0xc2, 0x70, 0x8a, 0x3c,
  0x08, 0xe0, 0x22, 0xbe, 0xbb, 0xd4, 0xda, 0xbd, 0x02, 0xb3, 0x29, 0x3f,
  0x8f, 0x90, 0xc3, 0xbe, 0x16, 0x98, 0x37, 0x3d, 0x5d, 0x09, 0xcc, 0xbc,
  0xa2, 0x7d, 0xf2, 0xbc, 0x3f, 0x74, 0x54, 0xbe, 0xe7, 0xaf, 0x6a, 0x3b,
  0x5f, 0xcf, 0xac, 0x3e, 0x54, 0x95, 0xb0, 0xbe, 0x6a, 0x9f, 0x91, 0xbe,
  0x03, 0x62, 0x59, 0x3c, 0x69, 0x41, 0x97, 0x3f, 0x0d, 0x49, 0x28, 0xbe,
  0x46, 0xa0, 0x91, 0xbc, 0x65, 0xc0, 0x4e, 0xbd, 0x2d, 0xb0, 0xbc, 0xbc,
  0x4c, 0x02, 0x01, 0x3f, 0x96, 0x23, 0x74, 0xbe, 0x43, 0x7c, 0x8e, 0xbd,
  0x53, 0xe7, 0x35, 0xbe, 0xd5, 0x5b, 0xf6, 0xbd, 0x07, 0x55, 0xab, 0xbe,
  0x88, 0x14, 0x33, 0x3e, 0x14, 0x67, 0x39, 0x3f, 0x97, 0xb6, 0xd9, 0xbd,
  0x33, 0xc2, 0x06, 0xbd, 0x7d, 0xf9, 0x42, 0x3e, 0x20, 0x89, 0x49, 0xbe,
  0x92, 0xd2, 0xd8, 0xbd, 0x78, 0x8c, 0x44, 0x3d, 0xe2, 0x03, 0x06, 0xbc,
  0x6a, 0xb1, 0xa6, 0xbd, 0x87, 0x53, 0x71, 0x3e, 0x2a, 0xf8, 0x03, 0xbe,
  0xe3, 0x64, 0x9d, 0x3d, 0x08, 0xa5, 0x56, 0x3e, 0x1d, 0xf2, 0x17, 0xbe,
  0x92, 0xaf, 0x85, 0xbe, 0x6b, 0x3a, 0xe2, 0xbd, 0x2f, 0x19, 0x0e, 0x3f,
  0x29, 0x86, 0x24, 0xbe, 0x78, 0xd8, 0x38, 0x3e, 0x0b, 0xad, 0x69, 0x3e,
  0xfc, 0x51, 0xfe, 0x3e, 0x77, 0xd1, 0xbb, 0xbe, 0xb1, 0x92, 0xe2, 0x3d,
  0xfb, 0x37, 0x66, 0xbe, 0x5c, 0x52, 0x03, 0x3a, 0xf2, 0x52, 0xd9, 0x3e,
  0xd5, 0x3b, 0x1c, 0xbf, 0x68, 0xef, 0x79, 0x3d, 0x5a, 0xb9, 0x07, 0x3e,
  0x90, 0x1f, 0xb0, 0xbc, 0x3b, 0x7a, 0x4c, 0xbe, 0x0e, 0x91, 0xdc, 0x3c,
  0xfb, 0x27, 0x17, 0x3f, 0x94, 0xb3, 0x8a, 0xbe, 0xb0, 0x15, 0x97, 0x3e,
  0xc4, 0xea, 0x72, 0x3d, 0x1d, 0xa3, 0xdb, 0x3e, 0x25, 0xe4, 0x55, 0xbd,
  0xfa, 0xf6, 0xa8, 0x3e, 0x8d, 0xa8, 0xfa, 0x3d, 0x8a, 0x02, 0xb9, 0xbc,
  0xb5, 0xfb, 0x11, 0x3e, 0xa8, 0x89, 0xb2, 0xbe, 0x06, 0xfd, 0x3d, 0xbe,
  0xac, 0x6f, 0x98, 0x3b, 0xd4, 0x09, 0xe9, 0x3d, 0xdd, 0xcf, 0x6f, 0xbe,
  0xc0, 0xc9, 0xde, 0x3d, 0x9c, 0xe7, 0x44, 0x3f, 0xcc, 0x63, 0x3a, 0xbe,
  0x5d, 0xdc, 0xdf, 0x3d, 0x65, 0x7d, 0x22, 0xbd, 0x60, 0x53, 0x16, 0x3f,
  0x59, 0xc0, 0x26, 0xbd, 0xae, 0x71, 0xb9, 0x3e, 0x19, 0x97, 0x63, 0x3e,
  0x41, 0x2b, 0xf6, 0xbd, 0xba, 0x26, 0x1d, 0x3e, 0x0f, 0x62, 0x35, 0xbe,
  0xe4, 0x90, 0xb2, 0x3c, 0xe9, 0x07, 0x1d, 0xbd, 0x8e, 0xe2, 0x0e, 0x3e,
  0x0d, 0x83, 0xef, 0xbd, 0x33, 0xf5, 0x21, 0x3e, 0x46, 0xbe, 0x0b, 0x3f,
  0xec, 0x2c, 0x3e, 0xbe, 0xe2, 0xee, 0xa2, 0x3c, 0x54, 0x0b, 0x40, 0x3e,
  0x17, 0x51, 0xa0, 0x3e, 0x65, 0xf9, 0x65, 0xbd, 0x4e, 0x32, 0x37, 0xbc,
  0x48, 0x97, 0x5f, 0x3d, 0x10, 0x92, 0x2e, 0xbe, 0x42, 0x71, 0xc4, 0x3e,
  0x4d, 0x8b, 0x63, 0xbe, 0x17, 0x55, 0xda, 0x3d, 0xa3, 0x95, 0x27, 0xbd,
  0x4c, 0x1b, 0xca, 0x3d, 0x23, 0xc3, 0x75, 0xbe, 0xd5, 0xc0, 0xed, 0x3d,
  0x5b, 0x4e, 0xb5, 0x3e, 0xeb, 0x6b, 0x84, 0xbe, 0xb1, 0xc9, 0x85, 0x3d,
  0xc5, 0x00, 0xbb, 0x3d, 0x4c, 0x0d, 0x13, 0xbe, 0x99, 0x55, 0x59, 0x3d,
  0x62, 0x8b, 0x2b, 0xbe, 0x7b, 0xd2, 0xd2, 0x3d, 0xc7, 0x5f, 0xe4, 0xbd,
  0xba, 0x54, 0x23, 0x3e, 0x41, 0x91, 0x4a, 0xbe, 0x72, 0x2f, 0xec, 0xbd,
  0x8b, 0x7e, 0x96, 0xbd, 0xe1, 0x30, 0x09, 0x3e, 0xf7, 0x89, 0x8f, 0xbe,
  0x4f, 0x6b, 0x3c, 0x3c, 0xf9, 0x43, 0xab, 0xbd, 0x01, 0x15, 0xc1, 0xbd,
  0xeb, 0x89, 0x82, 0xbc, 0xfc, 0xe6, 0x90, 0x3e, 0x7f, 0xd9, 0xbd, 0xbc,
  0xbc, 0x95, 0x33, 0x3d, 0xd6, 0x07, 0x8d, 0x3c, 0x33, 0x53, 0xd3, 0x3c,
  0x84, 0xd4, 0x29, 0xbd, 0x13, 0x9b, 0xcb, 0x3d, 0xa9, 0x6b, 0x24, 0x3d,
  0x88, 0xc4, 0x01, 0x3d, 0x0e, 0x70, 0x30, 0xbc, 0x33, 0x88, 0x94, 0x3d,
  0x8d, 0xcd, 0x4a, 0xbe, 0x62, 0xfd, 0xff, 0xff, 0x10, 0x00, 0x00, 0x00,
  0x07, 0x00, 0x00, 0x00, 0x14, 0x00, 0x00, 0x00, 0x2c, 0x00, 0x00, 0x00,
  0x02, 0x00, 0x00, 0x00, 0x10, 0x00, 0x00, 0x00, 0x70, 0x00, 0x00, 0x00,
  0x17, 0x00, 0x00, 0x00, 0x73, 0x65, 0x71, 0x75, 0x65, 0x6e, 0x74, 0x69,
  0x61, 0x6c, 0x2f, 0x64, 0x65, 0x6e, 0x73, 0x65, 0x2f, 0x4d, 0x61, 0x74,
  0x4d, 0x75, 0x6c, 0x00, 0xcc, 0xfc, 0xff, 0xff, 0xd6, 0xfd, 0xff, 0xff,
  0x04, 0x00, 0x00, 0x00, 0x08, 0x00, 0x00, 0x00, 0xff, 0xff, 0xff, 0xff,
  0x70, 0x00, 0x00, 0x00, 0x00, 0x00, 0x0e, 0x00, 0x18, 0x00, 0x08, 0x00,
  0x07, 0x00, 0x0c, 0x00, 0x10, 0x00, 0x14, 0x00, 0x0e, 0x00, 0x00, 0x00,
  0x00, 0x00, 0x00, 0x02, 0x10, 0x00, 0x00, 0x00, 0x06, 0x00, 0x00, 0x00,
  0x10, 0x00, 0x00, 0x00, 0x2c, 0x00, 0x00, 0x00, 0x01, 0x00, 0x00, 0x00,
  0x02, 0x00, 0x00, 0x00, 0x18, 0x00, 0x00, 0x00, 0x73, 0x65, 0x71, 0x75,
  0x65, 0x6e, 0x74, 0x69, 0x61, 0x6c, 0x2f, 0x66, 0x6c, 0x61, 0x74, 0x74,
  0x65, 0x6e, 0x2f, 0x43, 0x6f, 0x6e, 0x73, 0x74, 0x00, 0x00, 0x00, 0x00,
  0x34, 0xfd, 0xff, 0xff, 0x3e, 0xfe, 0xff, 0xff, 0x04, 0x00, 0x00, 0x00,
  0x10, 0x00, 0x00, 0x00, 0xf1, 0x7e, 0x56, 0x3f, 0xb4, 0xa0, 0x9c, 0x3e,
  0x17, 0x34, 0x0f, 0xc0, 0x5a, 0x90, 0xd2, 0xbf, 0x26, 0xfe, 0xff, 0xff,
  0x10, 0x00, 0x00, 0x00, 0x05, 0x00, 0x00, 0x00, 0x10, 0x00, 0x00, 0x00,
  0x44, 0x00, 0x00, 0x00, 0x01, 0x00, 0x00, 0x00, 0x04, 0x00, 0x00, 0x00,
  0x32, 0x00, 0x00, 0x00, 0x73, 0x65, 0x71, 0x75, 0x65, 0x6e, 0x74, 0x69,
  0x61, 0x6c, 0x2f, 0x64, 0x65, 0x6e, 0x73, 0x65, 0x5f, 0x31, 0x2f, 0x42,
  0x69, 0x61, 0x73, 0x41, 0x64, 0x64, 0x2f, 0x52, 0x65, 0x61, 0x64, 0x56,
  0x61, 0x72, 0x69, 0x61, 0x62, 0x6c, 0x65, 0x4f, 0x70, 0x2f, 0x72, 0x65,
  0x73, 0x6f, 0x75, 0x72, 0x63, 0x65, 0x00, 0x00, 0xa8, 0xfd, 0xff, 0xff,
  0xb2, 0xfe, 0xff, 0xff, 0x04, 0x00, 0x00, 0x00, 0x40, 0x00, 0x00, 0x00,
  0x6c, 0xe3, 0xf0, 0x3e, 0xda, 0xd3, 0x10, 0x3f, 0x55, 0xdd, 0x76, 0x40,
  0x23, 0xad, 0xe0, 0xbf, 0xb6, 0xf5, 0x20, 0x3f, 0xb8, 0x43, 0xe6, 0xbe,
  0x40, 0xb1, 0xe9, 0x3f, 0x20, 0xcc, 0xbf, 0x3f, 0x69, 0xae, 0x36, 0xbf,
  0xd5, 0x9b, 0x1a, 0x3f, 0x19, 0xef, 0x21, 0x40, 0xbd, 0xf6, 0x88, 0xbf,
  0x4c, 0x4f, 0xdd, 0xbe, 0x3a, 0x13, 0x79, 0x40, 0xde, 0x6c, 0x88, 0x3f,
  0x50, 0x37, 0x9c, 0x3f, 0xca, 0xfe, 0xff, 0xff, 0x10, 0x00, 0x00, 0x00,
  0x04, 0x00, 0x00, 0x00, 0x10, 0x00, 0x00, 0x00, 0x44, 0x00, 0x00, 0x00,
  0x01, 0x00, 0x00, 0x00, 0x10, 0x00, 0x00, 0x00, 0x30, 0x00, 0x00, 0x00,
  0x73, 0x65, 0x71, 0x75, 0x65, 0x6e, 0x74, 0x69, 0x61, 0x6c, 0x2f, 0x64,
  0x65, 0x6e, 0x73, 0x65, 0x2f, 0x42, 0x69, 0x61, 0x73, 0x41, 0x64, 0x64,
  0x2f, 0x52, 0x65, 0x61, 0x64, 0x56, 0x61, 0x72, 0x69, 0x61, 0x62, 0x6c,
  0x65, 0x4f, 0x70, 0x2f, 0x72, 0x65, 0x73, 0x6f, 0x75, 0x72, 0x63, 0x65,
  0x00, 0x00, 0x00, 0x00, 0x4c, 0xfe, 0xff, 0xff, 0x56, 0xff, 0xff, 0xff,
  0x04, 0x00, 0x00, 0x00, 0x40, 0x00, 0x00, 0x00, 0xed, 0xd9, 0xc3, 0xbf,
  0x26, 0xce, 0x8a, 0x40, 0xe1, 0x18, 0x39, 0xc0, 0xd5, 0x4a, 0xf7, 0xbe,
  0x96, 0x20, 0xd9, 0x3f, 0x7f, 0x8e, 0x6a, 0x40, 0x2d, 0x53, 0x09, 0xc0,
  0x82, 0xe0, 0x86, 0x3e, 0xa9, 0x67, 0xf6, 0xbf, 0x5c, 0x14, 0x37, 0xc0,
  0x59, 0x19, 0xdc, 0x3f, 0xb1, 0x33, 0x92, 0x3f, 0xac, 0xa7, 0x88, 0xbe,
  0x44, 0xf0, 0xb9, 0x3f, 0xd5, 0xb4, 0xcf, 0x3f, 0x12, 0x35, 0x28, 0xc0,
  0x6e, 0xff, 0xff, 0xff, 0x10, 0x00, 0x00, 0x00, 0x03, 0x00, 0x00, 0x00,
  0x10, 0x00, 0x00, 0x00, 0x48, 0x00, 0x00, 0x00, 0x01, 0x00, 0x00, 0x00,
  0x10, 0x00, 0x00, 0x00, 0x33, 0x00, 0x00, 0x00, 0x73, 0x65, 0x71, 0x75,
  0x65, 0x6e, 0x74, 0x69, 0x61, 0x6c, 0x2f, 0x63, 0x6f, 0x6e, 0x76, 0x32,
  0x64, 0x5f, 0x31, 0x2f, 0x42, 0x69, 0x61, 0x73, 0x41, 0x64, 0x64, 0x2f,
  0x52, 0x65, 0x61, 0x64, 0x56, 0x61, 0x72, 0x69, 0x61, 0x62, 0x6c, 0x65,
  0x4f, 0x70, 0x2f, 0x72, 0x65, 0x73, 0x6f, 0x75, 0x72, 0x63, 0x65, 0x00,
  0x04, 0x00, 0x06, 0x00, 0x04, 0x00, 0x00, 0x00, 0x00, 0x00, 0x06, 0x00,
  0x08, 0x00, 0x04, 0x00, 0x06, 0x00, 0x00, 0x00, 0x04, 0x00, 0x00, 0x00,
  0x20, 0x00, 0x00, 0x00, 0x5c, 0x3c, 0x55, 0xc0, 0xf9, 0x92, 0x5f, 0xc0,
  0x91, 0x8b, 0x15, 0xc0, 0xec, 0x23, 0x28, 0xbf, 0xb8, 0x36, 0x99, 0xbf,
  0xac, 0x98, 0x09, 0xbc, 0x8f, 0x29, 0x0d, 0xbe, 0xa6, 0xaf, 0x60, 0xc0,
  0x00, 0x00, 0x0e, 0x00, 0x14, 0x00, 0x04, 0x00, 0x00, 0x00, 0x08, 0x00,
  0x0c, 0x00, 0x10, 0x00, 0x0e, 0x00, 0x00, 0x00, 0x10, 0x00, 0x00, 0x00,
  0x02, 0x00, 0x00, 0x00, 0x10, 0x00, 0x00, 0x00, 0x44, 0x00, 0x00, 0x00,
  0x01, 0x00, 0x00, 0x00, 0x08, 0x00, 0x00, 0x00, 0x31, 0x00, 0x00, 0x00,
  0x73, 0x65, 0x71, 0x75, 0x65, 0x6e, 0x74, 0x69, 0x61, 0x6c, 0x2f, 0x63,
  0x6f, 0x6e, 0x76, 0x32, 0x64, 0x2f, 0x42, 0x69, 0x61, 0x73, 0x41, 0x64,
  0x64, 0x2f, 0x52, 0x65, 0x61, 0x64, 0x56, 0x61, 0x72, 0x69, 0x61, 0x62,
  0x6c, 0x65, 0x4f, 0x70, 0x2f, 0x72, 0x65, 0x73, 0x6f, 0x75, 0x72, 0x63,
  0x65, 0x00, 0x00, 0x00, 0x90, 0xff, 0xff, 0xff, 0x14, 0x00, 0x18, 0x00,
  0x04, 0x00, 0x00, 0x00, 0x08, 0x00, 0x0c, 0x00, 0x10, 0x00, 0x00, 0x00,
  0x00, 0x00, 0x14, 0x00, 0x14, 0x00, 0x00, 0x00, 0x14, 0x00, 0x00, 0x00,
  0x01, 0x00, 0x00, 0x00, 0x20, 0x00, 0x00, 0x00, 0x44, 0x00, 0x00, 0x00,
  0x2c, 0x00, 0x00, 0x00, 0x04, 0x00, 0x00, 0x00, 0x01, 0x00, 0x00, 0x00,
  0x40, 0x00, 0x00, 0x00, 0x03, 0x00, 0x00, 0x00, 0x01, 0x00, 0x00, 0x00,
  0x0c, 0x00, 0x00, 0x00, 0x63, 0x6f, 0x6e, 0x76, 0x32, 0x64, 0x5f, 0x69,
  0x6e, 0x70, 0x75, 0x74, 0x00, 0x00, 0x00, 0x00, 0x04, 0x00, 0x00, 0x00,
  0xff, 0xff, 0xff, 0xff, 0x40, 0x00, 0x00, 0x00, 0x03, 0x00, 0x00, 0x00,
  0x01, 0x00, 0x00, 0x00, 0xfc, 0xff, 0xff, 0xff, 0x04, 0x00, 0x04, 0x00,
  0x04, 0x00, 0x00, 0x00
};

unsigned int model_tflite_len = 13120;// Fill the int in `src/model.cc` here